<unk>	0
<s>	0
</s>	0
<pad>	0
<bos>	0
<eos>	0
,	-2.85712
▁the	-3.13737
.	-3.50273
▁and	-3.76151
▁of	-3.81829
s	-3.83112
▁to	-3.93506
▁a	-4.16808
▁in	-4.41299
▁“	-4.57111
▁I	-4.72516
▁that	-4.72548
▁he	-4.73624
▁was	-4.79849
’	-4.81459
▁his	-4.82437
;	-4.90928
▁is	-5.07444
▁it	-5.07495
▁with	-5.07603
▁you	-5.14176
▁had	-5.20794
▁	-5.21762
▁not	-5.2475
▁for	-5.3572
▁as	-5.3646
▁on	-5.42477
▁at	-5.44297
▁be	-5.45854
ing	-5.47501
ed	-5.50247
▁him	-5.51044
▁her	-5.53016
-	-5.53035
▁which	-5.55645
.”	-5.58702
▁have	-5.61394
d	-5.62676
▁The	-5.66395
▁said	-5.69443
▁all	-5.69884
▁but	-5.72879
▁by	-5.7299
▁this	-5.76235
▁from	-5.76993
▁my	-5.79334
▁me	-5.824
▁she	-5.94568
▁one	-5.95021
▁are	-5.96401
,”	-5.96455
▁so	-5.98982
t	-5.99761
▁or	-5.99945
▁they	-5.99952
▁were	-6.0207
▁who	-6.05086
ly	-6.05555
▁will	-6.11824
!	-6.15602
▁an	-6.16112
▁we	-6.21898
—	-6.23213
?”	-6.23937
:	-6.24179
?	-6.24422
▁He	-6.25185
▁them	-6.26548
▁their	-6.28198
▁man	-6.28317
▁no	-6.30312
▁there	-6.30354
▁been	-6.35078
▁would	-6.38166
▁when	-6.39482
I	-6.39619
▁what	-6.39784
▁do	-6.44888
▁out	-6.4654
▁your	-6.46594
▁up	-6.50061
▁And	-6.50688
▁more	-6.55103
er	-6.5735
▁if	-6.58022
▁into	-6.58981
y	-6.62478
▁has	-6.62988
!”	-6.63234
▁then	-6.65183
▁could	-6.69637
e	-6.7082
▁now	-6.7303
▁did	-6.75863
▁only	-6.75872
▁some	-6.76069
▁like	-6.76131
n	-6.77389
▁other	-6.78303
▁very	-6.79344
m	-6.79354
▁time	-6.80495
▁But	-6.84243
▁about	-6.84684
▁any	-6.85285
▁It	-6.85324
▁‘	-6.87669
▁can	-6.87957
▁see	-6.89349
▁than	-6.90581
▁must	-6.91686
▁know	-6.93216
c	-6.9466
▁himself	-6.9572
▁us	-6.96381
▁over	-6.97399
▁our	-6.97446
▁A	-6.9776
▁may	-6.98282
▁two	-6.98724
▁should	-7.00568
▁before	-7.02084
▁little	-7.03215
▁good	-7.05383
▁old	-7.05485
▁down	-7.06122
▁am	-7.07156
es	-7.09134
▁upon	-7.10931
▁first	-7.11167
▁these	-7.11591
▁such	-7.13618
r	-7.13993
▁made	-7.14414
▁men	-7.14714
▁say	-7.15017
▁_	-7.15074
a	-7.15382
▁again	-7.15443
▁shall	-7.17368
▁day	-7.17907
▁way	-7.18214
▁went	-7.19179
▁go	-7.19412
▁came	-7.21327
▁come	-7.22241
▁where	-7.23065
▁own	-7.23278
▁eyes	-7.2423
▁hand	-7.24638
▁great	-7.24856
▁M	-7.26947
▁after	-7.26977
▁without	-7.27692
▁In	-7.2798
▁much	-7.29064
▁de	-7.29266
▁still	-7.29485
▁thought	-7.29974
▁long	-7.31484
in	-7.32316
▁back	-7.32637
▁those	-7.33053
▁same	-7.33455
al	-7.33648
▁how	-7.34439
▁well	-7.34498
l	-7.35614
▁here	-7.37469
▁head	-7.37502
▁away	-7.3762
re	-7.383
▁its	-7.38594
▁through	-7.3908
▁She	-7.39916
▁life	-7.41086
▁just	-7.41246
▁father	-7.42207
▁house	-7.4265
▁Then	-7.42877
▁even	-7.43946
▁never	-7.44295
▁being	-7.45652
▁most	-7.46515
_	-7.46628
▁think	-7.46707
▁(	-7.4674
▁might	-7.47009
▁make	-7.47699
u	-7.47738
▁This	-7.48366
▁nothing	-7.48451
▁last	-7.48569
▁saw	-7.48637
p	-7.49557
it	-7.50502
or	-7.51111
▁too	-7.51321
st	-7.51777
▁un	-7.53128
▁young	-7.5368
▁door	-7.54833
▁face	-7.54864
ll	-7.55785
▁left	-7.56499
▁There	-7.57383
▁took	-7.5739
▁every	-7.57476
▁seemed	-7.57692
▁another	-7.57835
▁work	-7.57859
▁moment	-7.58745
ness	-7.58821
▁off	-7.59016
▁room	-7.59071
▁right	-7.59706
▁night	-7.60146
▁though	-7.60284
▁take	-7.60444
▁once	-7.61542
g	-7.62498
▁heard	-7.64009
▁under	-7.64128
▁They	-7.64952
▁found	-7.65563
▁You	-7.65624
▁tell	-7.6624
▁yet	-7.6643
f	-7.66876
▁while	-7.6694
▁When	-7.6741
)	-7.68822
▁people	-7.68891
▁replied	-7.69567
▁three	-7.69582
▁asked	-7.70082
▁looked	-7.71002
▁whole	-7.71463
▁let	-7.71746
▁place	-7.72053
E	-7.72835
▁Pierre	-7.74014
S	-7.74173
▁began	-7.74575
b	-7.74786
ar	-7.75044
▁whom	-7.76062
▁something	-7.76444
▁round	-7.76489
▁As	-7.77383
▁CHAPTER	-7.77435
▁count	-7.77632
and	-7.78225
▁At	-7.78662
▁side	-7.78733
i	-7.78841
th	-7.79501
▁seen	-7.79973
▁"	-7.80822
▁get	-7.81007
▁many	-7.81151
▁give	-7.81245
You	-7.81594
▁love	-7.81724
--	-7.8178
le	-7.82656
▁look	-7.83071
▁re	-7.83438
▁What	-7.83939
▁also	-7.84208
▁mind	-7.84362
▁To	-7.84677
▁light	-7.84887
▁Project	-7.85207
▁heart	-7.85316
What	-7.86414
the	-7.86589
▁each	-7.86727
▁always	-7.869
▁felt	-7.8795
A	-7.88238
▁against	-7.88485
▁voice	-7.89743
w	-7.90659
ch	-7.9106
”	-7.91145
ion	-7.9121
▁put	-7.91626
▁We	-7.92058
▁name	-7.92106
▁things	-7.9235
▁Prince	-7.9236
▁If	-7.92419
▁having	-7.92451
▁son	-7.92911
▁dear	-7.93166
▁S	-7.93291
▁part	-7.9342
▁ever	-7.93631
▁hands	-7.93769
en	-7.9386
▁end	-7.93964
▁thing	-7.94408
▁far	-7.94748
Yes	-7.94981
▁His	-7.95322
▁told	-7.95516
ve	-7.95631
▁world	-7.96011
▁mother	-7.96036
▁words	-7.96429
The	-7.96485
▁going	-7.96526
▁turned	-7.97836
▁soon	-7.98015
▁because	-7.98537
▁done	-7.99471
▁both	-7.99637
ur	-7.99928
▁quite	-8.00179
o	-8.00286
▁So	-8.0031
▁[	-8.00661
▁death	-8.00698
▁Mr	-8.01164
▁For	-8.01706
ic	-8.01716
▁friend	-8.02099
us	-8.02877
▁That	-8.03782
▁F	-8.03875
▁cried	-8.0388
▁find	-8.04103
▁myself	-8.04529
And	-8.04969
▁between	-8.05196
▁set	-8.0561
▁word	-8.06067
▁called	-8.06633
▁morning	-8.0675
is	-8.07036
▁knew	-8.07238
▁God	-8.07503
ity	-8.07563
est	-8.07594
▁order	-8.07638
ter	-8.07993
▁full	-8.08829
▁cannot	-8.0891
ers	-8.09012
▁gave	-8.11604
on	-8.12091
▁years	-8.125
▁Marius	-8.12874
k	-8.12932
▁almost	-8.13325
▁home	-8.1333
▁woman	-8.13349
▁T	-8.13584
▁does	-8.13926
h	-8.13926
il	-8.13943
▁o	-8.13965
▁half	-8.14237
▁towards	-8.14598
▁few	-8.14856
▁war	-8.14933
el	-8.15382
It	-8.15569
▁C	-8.15886
▁poor	-8.16175
▁soul	-8.16515
▁passed	-8.16942
▁true	-8.17179
ation	-8.17258
less	-8.17655
▁got	-8.17916
▁nor	-8.18061
▁sea	-8.1808
▁anything	-8.18207
▁air	-8.18423
▁stood	-8.18445
▁B	-8.1857
▁alone	-8.19084
Well	-8.19529
v	-8.19623
O	-8.19681
▁behind	-8.19726
an	-8.19867
▁dead	-8.20093
▁already	-8.2013
▁speak	-8.20444
▁GutenbergTM	-8.20454
▁sir	-8.20658
▁herself	-8.20741
▁better	-8.21025
▁don	-8.21088
as	-8.2113
▁child	-8.21411
▁sort	-8.21523
▁lay	-8.21799
Oh	-8.22025
▁fire	-8.22273
T	-8.22373
▁On	-8.22832
▁bed	-8.23268
▁taken	-8.23294
▁thus	-8.23452
ul	-8.2369
▁thy	-8.23691
▁arms	-8.23977
▁French	-8.24054
at	-8.24099
la	-8.24256
▁Jean	-8.2429
▁water	-8.24564
▁p	-8.24735
▁Natásha	-8.24784
▁new	-8.24842
▁near	-8.2488
▁sat	-8.25116
▁white	-8.25159
▁want	-8.25217
▁among	-8.25561
▁hear	-8.25615
able	-8.25898
ry	-8.26263
ne	-8.26597
▁All	-8.27234
:—	-8.27501
No	-8.27555
▁Monte	-8.27622
▁No	-8.27687
▁ship	-8.27811
▁Andrew	-8.28658
▁open	-8.2903
▁Cristo	-8.29189
▁longer	-8.29203
▁whose	-8.2924
ra	-8.30148
▁everything	-8.30977
▁understand	-8.31017
▁Valjean	-8.31248
▁*	-8.32191
▁since	-8.32215
▁days	-8.32304
▁fell	-8.32538
▁wife	-8.32798
▁ground	-8.32935
▁Villefort	-8.32981
▁black	-8.33166
▁rest	-8.33365
But	-8.33368
▁general	-8.33499
▁small	-8.3355
▁matter	-8.33716
▁brought	-8.33906
▁others	-8.34002
▁second	-8.34185
▁till	-8.34196
li	-8.34296
▁Now	-8.34731
that	-8.34908
▁army	-8.35606
he	-8.3576
et	-8.35792
ant	-8.35921
▁wish	-8.36124
▁fear	-8.36262
ent	-8.36287
▁however	-8.36375
▁along	-8.36525
▁return	-8.36528
▁d	-8.3669
▁kind	-8.37119
▁country	-8.37162
▁saying	-8.37468
▁whether	-8.38191
M	-8.38623
▁table	-8.38726
ate	-8.38756
▁point	-8.38762
C	-8.39077
▁P	-8.39348
▁four	-8.39463
▁themselves	-8.40233
▁given	-8.40531
▁leave	-8.40578
▁evening	-8.41328
to	-8.41365
▁looking	-8.41541
ment	-8.41882
▁Ch	-8.42354
▁whale	-8.42597
se	-8.42606
▁present	-8.42606
ted	-8.4282
▁together	-8.42941
man	-8.43048
▁question	-8.43267
▁course	-8.43643
▁Cosette	-8.43774
▁returned	-8.43781
▁One	-8.44219
▁enough	-8.44377
▁hour	-8.44408
▁rather	-8.44479
▁large	-8.44962
▁suddenly	-8.45492
▁smile	-8.45679
ro	-8.45717
▁answered	-8.45952
▁power	-8.46018
▁sight	-8.46122
▁ask	-8.46275
▁girl	-8.46432
▁state	-8.46931
▁feet	-8.46937
▁use	-8.47078
▁best	-8.47137
▁With	-8.4717
ies	-8.47218
▁gone	-8.47338
ir	-8.47361
▁hundred	-8.47518
▁E	-8.48006
▁certain	-8.48019
▁help	-8.48161
▁case	-8.48502
▁thou	-8.4863
▁O	-8.48796
▁less	-8.49239
▁why	-8.49506
▁sun	-8.49626
▁king	-8.49817
▁entered	-8.49988
▁next	-8.49997
▁e	-8.50287
▁thousand	-8.50326
▁Danglars	-8.50544
▁person	-8.50734
▁body	-8.51379
z	-8.51494
▁high	-8.51679
▁nature	-8.51794
▁lost	-8.51998
▁spoke	-8.52094
▁around	-8.52315
▁fact	-8.52589
▁1.	-8.53014
▁live	-8.5327
▁keep	-8.53308
P	-8.53346
▁earth	-8.53499
▁letter	-8.53509
▁c	-8.53544
▁believe	-8.53758
D	-8.53824
▁sleep	-8.5391
▁reason	-8.5404
▁either	-8.54574
ated	-8.54628
He	-8.54765
▁really	-8.55078
me	-8.55434
▁arm	-8.55675
▁idea	-8.55707
▁sent	-8.56192
▁battle	-8.56301
▁opened	-8.56482
▁daughter	-8.56491
▁My	-8.56519
ive	-8.56624
▁ran	-8.5674
▁hope	-8.56813
▁turn	-8.57094
▁THE	-8.5731
▁road	-8.57513
ling	-8.57563
▁sound	-8.57591
▁heaven	-8.57691
▁perhaps	-8.58087
F	-8.58377
▁read	-8.58395
▁human	-8.58506
▁become	-8.58949
▁sure	-8.58959
▁form	-8.59017
ce	-8.59021
▁within	-8.59194
ful	-8.59662
That	-8.59668
▁continued	-8.59692
▁above	-8.5973
▁mean	-8.5981
▁eye	-8.59846
▁least	-8.60093
▁blood	-8.60201
▁money	-8.60334
▁manner	-8.60414
▁possible	-8.60575
▁yourself	-8.60965
▁Paris	-8.61243
▁Rostóv	-8.61491
▁close	-8.61791
▁happy	-8.61796
▁held	-8.61807
Ah	-8.61815
▁horse	-8.61891
▁strange	-8.61962
▁call	-8.62064
▁indeed	-8.62169
▁dark	-8.62237
▁remained	-8.62286
un	-8.626
▁front	-8.62649
ol	-8.63132
▁enemy	-8.6328
um	-8.6347
▁Madame	-8.63471
▁wall	-8.63517
▁rose	-8.63665
▁short	-8.6367
▁itself	-8.63883
▁added	-8.64007
co	-8.64029
▁became	-8.64282
▁window	-8.64299
▁dis	-8.64436
▁red	-8.64511
▁care	-8.64513
you	-8.64568
im	-8.64622
▁works	-8.64688
▁five	-8.6476
▁coming	-8.64779
▁“‘	-8.64818
▁chief	-8.64835
▁therefore	-8.64913
▁answer	-8.65238
▁Albert	-8.65816
▁until	-8.66188
▁doubt	-8.66351
▁view	-8.66447
▁children	-8.66459
▁times	-8.66502
ous	-8.6663
▁sister	-8.67549
ia	-8.67636
ian	-8.67669
▁Morrel	-8.67739
▁free	-8.6777
▁Napoleon	-8.67879
▁received	-8.67926
led	-8.67939
▁Emperor	-8.68393
▁often	-8.68814
▁brother	-8.68887
▁means	-8.69099
▁D	-8.69644
men	-8.69676
▁Rue	-8.69852
▁hair	-8.6986
▁truth	-8.70246
R	-8.7031
é	-8.70553
▁ten	-8.70728
▁family	-8.70782
am	-8.71184
▁able	-8.71253
▁Mary	-8.71293
▁pass	-8.71463
te	-8.71502
▁fellow	-8.71773
▁husband	-8.71998
▁Elizabeth	-8.72134
▁Count	-8.7232
▁appeared	-8.72668
ri	-8.72673
▁Ulysses	-8.727
be	-8.72957
▁age	-8.73156
de	-8.73315
▁feel	-8.73316
for	-8.73546
▁Dantès	-8.73643
▁con	-8.73681
▁friends	-8.73746
but	-8.73756
▁W	-8.74039
▁fall	-8.74041
▁Moscow	-8.74337
ish	-8.75068
▁Do	-8.7529
▁feeling	-8.7543
▁b	-8.75791
▁terrible	-8.75879
▁women	-8.76021
▁G	-8.76115
▁master	-8.76169
▁taking	-8.76448
▁forth	-8.767
▁force	-8.76789
▁making	-8.77018
lo	-8.77366
▁ye	-8.77376
id	-8.77378
▁says	-8.77586
▁R	-8.77707
▁die	-8.77943
▁carriage	-8.78036
▁w	-8.78126
▁ready	-8.78183
▁foot	-8.78582
▁else	-8.78599
▁hard	-8.78659
▁followed	-8.78724
▁known	-8.78783
▁expression	-8.79059
ine	-8.7909
▁past	-8.79112
My	-8.79129
▁ch	-8.7915
_,	-8.7921
▁H	-8.79423
▁How	-8.79475
▁town	-8.79629
▁cold	-8.79743
▁talk	-8.79834
ting	-8.80355
▁cause	-8.80533
▁beautiful	-8.80804
▁during	-8.81113
▁bring	-8.81169
▁drew	-8.81251
▁law	-8.81289
▁run	-8.81483
▁seem	-8.81551
...	-8.81715
▁deep	-8.81776
▁fine	-8.82675
ance	-8.82738
▁need	-8.83092
if	-8.83098
▁seems	-8.8312
ge	-8.83123
ver	-8.83415
▁sometimes	-8.83514
em	-8.83814
▁reached	-8.84196
▁line	-8.84307
▁doctor	-8.84433
▁kept	-8.84896
▁hold	-8.85002
▁different	-8.85053
?’	-8.8538
▁OF	-8.86168
▁Yes	-8.8618
▁gods	-8.86259
▁placed	-8.86481
▁land	-8.86782
mp	-8.87024
▁used	-8.87318
▁raised	-8.87675
B	-8.87728
▁subject	-8.87807
Why	-8.87814
▁Gutenberg	-8.88043
▁number	-8.88146
▁prince	-8.88151
▁Jove	-8.88198
▁terms	-8.88433
▁State	-8.88475
▁pleasure	-8.88786
▁pale	-8.88828
▁fight	-8.8891
▁St	-8.8893
▁silence	-8.89001
▁Valentine	-8.89023
▁horses	-8.89235
▁From	-8.8924
▁ex	-8.8935
▁These	-8.89403
▁cut	-8.89437
▁low	-8.89568
L	-8.89632
▁Nicholas	-8.8983
▁met	-8.89863
▁plain	-8.899
▁twenty	-8.9002
How	-8.90095
▁La	-8.90222
▁several	-8.90298
▁Let	-8.90318
▁captain	-8.90463
▁garden	-8.90656
▁After	-8.90836
▁francs	-8.90954
▁corner	-8.91033
▁strength	-8.91178
▁V	-8.91249
▁joy	-8.91408
▁business	-8.91613
▁l	-8.92091
▁position	-8.92164
▁g	-8.92429
▁ill	-8.92452
▁strong	-8.92571
▁third	-8.9261
▁officer	-8.92671
▁attention	-8.92778
▁evil	-8.92945
▁clear	-8.93097
▁art	-8.93142
▁wind	-8.93162
▁K	-8.93388
▁electronic	-8.93443
,—	-8.93452
▁account	-8.93618
▁tried	-8.93619
▁en	-8.93624
ward	-8.93688
▁forward	-8.93918
▁mouth	-8.93956
ad	-8.94063
▁fair	-8.94143
▁following	-8.94279
▁justice	-8.94332
▁bad	-8.94488
▁boy	-8.94528
▁Princess	-8.9494
pe	-8.94993
▁gold	-8.95119
one	-8.95379
▁happened	-8.95495
▁change	-8.95823
▁Thénardier	-8.96009
▁laid	-8.96025
▁carried	-8.96183
▁hardly	-8.96288
We	-8.96299
ary	-8.96333
]	-8.96349
H	-8.96366
▁exclaimed	-8.96562
▁soldiers	-8.96644
▁opinion	-8.96877
▁Saint	-8.96967
we	-8.97002
▁struck	-8.97054
▁six	-8.9718
▁remember	-8.97185
▁doing	-8.97303
U	-8.97713
▁Franz	-8.97753
▁further	-8.97754
▁sitting	-8.97765
▁standing	-8.9777
▁happiness	-8.97929
▁turning	-8.98025
▁led	-8.98652
▁bound	-8.98948
If	-8.99064
▁knowledge	-8.99543
▁year	-8.99578
clock	-8.99714
▁city	-8.99756
▁Her	-8.99769
▁ought	-8.99892
na	-8.99903
▁certainly	-8.9992
age	-9.00101
▁stopped	-9.0025
."	-9.00364
ty	-9.00533
▁la	-9.00623
▁seeing	-9.00777
▁impossible	-9.0097
▁street	-9.01002
▁watch	-9.01064
▁real	-9.01083
▁beneath	-9.01152
▁beside	-9.01193
▁late	-9.01414
▁iron	-9.01479
▁secret	-9.01504
▁across	-9.01942
▁evidently	-9.01988
▁effect	-9.0225
▁living	-9.0225
▁meet	-9.02584
▁neither	-9.02804
▁speaking	-9.02826
▁Oh	-9.02837
▁Thus	-9.02847
▁suppose	-9.03186
▁An	-9.0344
no	-9.03454
▁rich	-9.03472
_.	-9.03787
▁common	-9.0392
ot	-9.03949
▁By	-9.03996
▁anyone	-9.04036
▁Kut	-9.04119
There	-9.04126
▁tone	-9.0455
▁tears	-9.04634
ist	-9.04827
zov	-9.04865
1	-9.04961
▁fate	-9.05054
▁Foundation	-9.05238
▁crowd	-9.05265
all	-9.05302
ard	-9.05394
▁wanted	-9.05567
▁drawing	-9.05698
ure	-9.05721
▁r	-9.05812
▁field	-9.06009
▁bear	-9.06371
G	-9.06569
pp	-9.06585
▁Of	-9.06645
▁length	-9.06959
▁wood	-9.07009
▁visit	-9.07268
▁Why	-9.07428
▁lips	-9.07463
▁wine	-9.07469
▁steps	-9.07548
▁step	-9.07991
▁Mrs	-9.08403
vi	-9.08493
4	-9.08538
ring	-9.08624
▁conversation	-9.0871
▁vain	-9.08714
▁Miss	-9.08715
▁boat	-9.08821
!’	-9.0884
ier	-9.08896
▁arrived	-9.09031
▁silent	-9.09066
let	-9.09071
▁wait	-9.09106
do	-9.09122
▁bright	-9.09301
▁glad	-9.09301
▁wild	-9.09301
▁moved	-9.0938
▁story	-9.09696
▁Ahab	-9.09899
▁stand	-9.09904
▁comes	-9.09929
▁later	-9.10088
▁necessary	-9.10093
▁single	-9.10357
▁di	-9.10407
▁show	-9.10544
▁wished	-9.1074
▁instant	-9.10861
▁mine	-9.11092
▁service	-9.11094
▁beginning	-9.11097
red	-9.11104
▁princess	-9.11153
▁act	-9.11204
▁Be	-9.11231
▁closed	-9.11685
up	-9.11967
▁remain	-9.11969
▁hours	-9.12066
3	-9.12119
▁paper	-9.12405
Do	-9.12408
▁youth	-9.12543
▁chance	-9.12578
▁minutes	-9.127
▁eat	-9.12722
▁lady	-9.12784
▁pay	-9.12806
ma	-9.12846
▁Russian	-9.12856
▁fixed	-9.12875
▁dinner	-9.13124
▁distance	-9.1333
▁attack	-9.13338
▁sign	-9.1349
,"	-9.13567
▁immediately	-9.13594
▁Not	-9.13853
▁pocket	-9.13967
▁court	-9.14192
▁train	-9.1423
▁trees	-9.14465
▁won	-9.14812
),	-9.1484
▁Here	-9.14846
▁honor	-9.14963
▁countess	-9.14995
ac	-9.15047
▁glance	-9.15256
▁character	-9.15615
▁afraid	-9.15616
▁blue	-9.15641
▁killed	-9.15727
▁appear	-9.15797
▁reply	-9.15937
:--	-9.15953
▁paid	-9.16051
▁direction	-9.16092
ton	-9.16172
▁sense	-9.1619
▁fortune	-9.1625
▁purpose	-9.16462
▁sweet	-9.16622
▁green	-9.16704
▁Well	-9.16804
rs	-9.16844
▁peace	-9.16851
▁allow	-9.17023
▁Some	-9.17093
ti	-9.17262
ph	-9.17358
▁god	-9.1746
8	-9.17575
▁Or	-9.17702
▁drink	-9.17971
▁desire	-9.18173
▁try	-9.18408
▁stay	-9.18433
▁please	-9.18462
ious	-9.18602
▁spot	-9.18619
▁appearance	-9.1862
▁fresh	-9.18822
▁presence	-9.18822
Then	-9.19129
▁follow	-9.19145
▁command	-9.19212
▁future	-9.19257
▁understood	-9.19257
▁below	-9.19483
▁talking	-9.19876
ang	-9.19939
▁Who	-9.19983
▁repeated	-9.20041
▁sp	-9.20127
▁yes	-9.20241
▁noble	-9.20273
...”	-9.20327
▁Holmes	-9.20354
our	-9.20646
▁play	-9.20648
▁darkness	-9.20665
▁thinking	-9.20728
▁except	-9.20747
▁grave	-9.20789
▁public	-9.20796
ow	-9.20888
▁breast	-9.21019
▁cry	-9.21095
▁caught	-9.21244
▁soldier	-9.21318
▁none	-9.21406
▁troops	-9.21438
▁ha	-9.21452
▁floor	-9.21471
▁lived	-9.21503
▁coat	-9.21649
▁send	-9.21725
▁shore	-9.21731
pi	-9.21766
ut	-9.21837
▁top	-9.21997
▁hat	-9.2201
▁Javert	-9.22133
▁threw	-9.22133
▁history	-9.22135
▁loved	-9.22249
▁broken	-9.22251
▁walked	-9.22296
room	-9.22447
ie	-9.22515
▁escape	-9.22677
▁dream	-9.22765
ig	-9.22964
▁While	-9.23054
—“	-9.23085
▁interest	-9.23268
▁Hector	-9.23717
▁passage	-9.23738
ence	-9.23779
ating	-9.23851
▁ago	-9.23924
▁simple	-9.23945
▁straight	-9.24167
▁chair	-9.24179
▁deal	-9.2418
▁action	-9.24216
▁cast	-9.2425
▁race	-9.24305
▁danger	-9.24386
▁Troy	-9.24404
▁seat	-9.24569
▁beyond	-9.24634
▁seized	-9.24745
▁nearly	-9.24807
▁brave	-9.24812
▁smoke	-9.24864
▁glass	-9.25332
▁blow	-9.25548
▁wide	-9.25588
▁spirit	-9.25733
▁Nor	-9.25784
ck	-9.25908
▁sad	-9.25919
▁walk	-9.2594
▁enter	-9.25949
▁Darcy	-9.26024
▁study	-9.26032
▁makes	-9.26163
.]	-9.26175
▁waiting	-9.26284
▁natural	-9.26492
▁news	-9.26537
▁car	-9.26616
▁knows	-9.26765
▁stone	-9.26814
▁quickly	-9.26916
▁Sónya	-9.26991
▁De	-9.27125
▁instead	-9.27203
▁object	-9.27213
▁laws	-9.27536
In	-9.27554
op	-9.27607
▁filled	-9.27676
▁heavy	-9.27909
▁thoughts	-9.2794
▁although	-9.28147
▁orders	-9.28362
▁stranger	-9.28543
▁wrong	-9.28625
▁book	-9.28677
der	-9.28963
▁self	-9.2902
▁silver	-9.29105
▁grew	-9.2911
▁Denísov	-9.29125
ER	-9.29154
5	-9.29162
▁regard	-9.29184
▁shouted	-9.29188
▁society	-9.29346
▁host	-9.29393
les	-9.29438
▁lie	-9.2953
▁written	-9.29587
▁sky	-9.2959
▁Achilles	-9.29829
▁Caderousse	-9.29829
▁fl	-9.29835
▁States	-9.29929
▁scene	-9.30072
▁commander	-9.30223
▁pretty	-9.30315
go	-9.30592
▁calm	-9.30764
▁post	-9.30784
▁easy	-9.30804
per	-9.30849
▁movement	-9.3088
7	-9.30903
▁trouble	-9.3093
ber	-9.30997
▁Mademoiselle	-9.31109
▁Po	-9.31244
▁imp	-9.31259
▁Alice	-9.31555
▁agreement	-9.31809
po	-9.31851
▁mo	-9.31958
▁forest	-9.31974
▁Re	-9.32102
▁latter	-9.32284
day	-9.32334
ip	-9.32339
▁Van	-9.32341
ag	-9.32409
ial	-9.32485
▁marriage	-9.32532
▁usual	-9.32568
by	-9.3275
▁spring	-9.32795
▁copyright	-9.32813
▁3	-9.32914
▁thick	-9.33012
▁result	-9.33032
▁middle	-9.33034
ever	-9.33154
▁receive	-9.33174
▁L	-9.33267
▁bit	-9.33323
▁wounded	-9.33326
ill	-9.33597
▁big	-9.33622
▁Ha	-9.33653
ha	-9.33682
▁save	-9.33706
▁fast	-9.33737
▁neck	-9.33789
▁duty	-9.34048
▁gentleman	-9.34053
▁King	-9.34159
▁le	-9.34173
▁merely	-9.34183
▁river	-9.34291
V	-9.34397
▁Chapter	-9.34545
ho	-9.34661
▁Where	-9.34664
▁toward	-9.34739
▁join	-9.34907
ru	-9.34947
▁spread	-9.35425
▁move	-9.35522
▁Plato	-9.35565
▁sc	-9.35673
To	-9.35708
way	-9.35978
▁blind	-9.36082
▁respect	-9.36285
▁Morcerf	-9.3634
▁f	-9.36518
This	-9.36589
▁attempt	-9.36599
▁sword	-9.36599
▁outside	-9.36699
▁ancient	-9.36859
▁divine	-9.36859
▁pa	-9.3686
▁bow	-9.36897
▁meaning	-9.36981
▁covered	-9.37429
▁noticed	-9.37465
▁greater	-9.37496
▁charge	-9.37543
tic	-9.37564
ations	-9.37652
▁probably	-9.3766
▁former	-9.37666
▁noise	-9.37715
▁co	-9.37777
▁seven	-9.37856
▁terror	-9.37904
▁running	-9.37915
x	-9.37921
▁4	-9.38108
so	-9.38154
nt	-9.38252
tri	-9.38264
▁sit	-9.38346
▁kill	-9.38407
▁plan	-9.38505
▁getting	-9.38511
▁formed	-9.38557
▁officers	-9.38666
ta	-9.38716
▁giving	-9.38746
▁quarter	-9.38947
▁warm	-9.3904
Now	-9.39069
Come	-9.39229
▁beauty	-9.39247
▁U	-9.39531
▁slowly	-9.39592
ical	-9.39638
▁France	-9.39761
▁leaving	-9.39766
land	-9.39796
▁figure	-9.40027
sh	-9.40039
▁agree	-9.40158
▁police	-9.40276
▁fallen	-9.40368
▁died	-9.40449
▁occasion	-9.40495
ten	-9.40531
▁broad	-9.4057
▁18	-9.40631
▁early	-9.40757
ick	-9.40816
▁rise	-9.40826
▁despair	-9.40838
▁learn	-9.41105
▁asleep	-9.41109
▁afterwards	-9.41111
con	-9.41118
ice	-9.41201
▁pity	-9.41259
▁thee	-9.41343
▁Dorothy	-9.41381
▁passing	-9.41402
ff	-9.4172
▁carry	-9.42088
▁rage	-9.42219
▁expected	-9.42228
ities	-9.42268
▁promise	-9.42666
▁pre	-9.42691
▁married	-9.42751
▁reach	-9.42797
che	-9.42835
▁grand	-9.43342
▁servant	-9.43412
▁angry	-9.43861
▁listened	-9.43942
▁Pooh	-9.43979
▁months	-9.44009
▁greatest	-9.44138
▁walls	-9.44193
▁cap	-9.44352
▁especially	-9.44454
▁forget	-9.44538
▁notice	-9.44589
▁trying	-9.4468
▁important	-9.44704
ably	-9.44711
bb	-9.44763
▁Le	-9.44825
▁dare	-9.44956
▁breath	-9.44967
0	-9.45429
▁Whale	-9.45548
▁lying	-9.45617
▁smiled	-9.45673
▁surprise	-9.45757
▁Bennet	-9.45832
▁burst	-9.45832
ave	-9.45885
▁holding	-9.46029
▁smiling	-9.46117
▁box	-9.46158
ab	-9.46191
▁dog	-9.46257
....	-9.46383
iv	-9.4648
▁wise	-9.46641
▁barricade	-9.46689
▁shoulders	-9.46726
▁cross	-9.46763
▁pain	-9.46945
▁village	-9.46982
▁Dr	-9.46998
▁piece	-9.47053
▁tree	-9.47089
▁wonder	-9.47103
▁eight	-9.4715
▁according	-9.47424
what	-9.47473
ism	-9.4748
▁English	-9.47532
mon	-9.47604
▁gate	-9.4788
▁party	-9.47886
▁quick	-9.47907
▁dreadful	-9.47964
▁whatever	-9.48032
bo	-9.48036
▁easily	-9.48426
▁mad	-9.48491
▁main	-9.48503
▁Ma	-9.48702
ions	-9.48819
▁honour	-9.48888
▁perfectly	-9.48902
▁draw	-9.48937
▁regiment	-9.48946
▁journey	-9.49012
▁United	-9.49012
▁fish	-9.49041
▁guard	-9.49067
os	-9.49205
So	-9.4923
▁gr	-9.49294
ON	-9.49297
▁spite	-9.49389
á	-9.49598
▁thunder	-9.49601
▁laugh	-9.49637
▁grief	-9.49897
▁dress	-9.50029
▁grow	-9.50128
▁judge	-9.50193
▁everyone	-9.50283
ade	-9.50398
▁leg	-9.50409
▁pro	-9.50471
▁unknown	-9.50503
ble	-9.50617
6	-9.50706
▁excellency	-9.50789
▁begin	-9.51158
▁disappeared	-9.51206
▁effort	-9.51342
▁allowed	-9.51358
▁courage	-9.51371
▁Noirtier	-9.51389
▁rising	-9.51391
▁minute	-9.51411
▁shadow	-9.5165
vo	-9.51681
W	-9.51695
▁particular	-9.5172
▁hero	-9.5175
▁serious	-9.51757
▁contrary	-9.51992
▁crime	-9.51993
▁flew	-9.52001
▁Yet	-9.52056
▁ideas	-9.52166
▁5	-9.52216
▁shut	-9.523
▁copy	-9.52483
▁bread	-9.52605
▁write	-9.52646
▁ball	-9.52646
▁Such	-9.52654
▁pleased	-9.52801
▁Ca	-9.52873
▁Dólokhov	-9.52904
▁teeth	-9.52905
▁faint	-9.52914
▁bore	-9.52918
▁golden	-9.52968
▁sudden	-9.52976
que	-9.53029
mo	-9.53059
▁imagine	-9.53156
▁degree	-9.5321
▁virtue	-9.53516
▁company	-9.53518
▁brow	-9.53722
▁stop	-9.53817
▁individual	-9.53831
org	-9.53842
▁chamber	-9.53884
▁thin	-9.53962
▁horror	-9.54133
▁ruin	-9.54369
▁opposite	-9.54443
▁sake	-9.54447
▁island	-9.54545
▁dressed	-9.54554
▁lies	-9.54818
ors	-9.54865
oo	-9.54927
▁ho	-9.54947
▁various	-9.55071
▁tall	-9.5512
ned	-9.55252
▁See	-9.55401
Who	-9.5547
au	-9.55485
▁listen	-9.55514
N	-9.5557
▁shot	-9.55606
▁consider	-9.55681
ius	-9.55683
▁crew	-9.55691
ke	-9.55954
▁food	-9.56007
▁lower	-9.56108
▁advantage	-9.56303
▁Helsing	-9.56321
▁seek	-9.56331
They	-9.56426
▁board	-9.56444
▁address	-9.56456
▁note	-9.56463
▁bent	-9.56605
▁bottom	-9.56637
▁paragraph	-9.56637
▁proud	-9.56638
▁equal	-9.56688
▁lose	-9.56712
like	-9.5676
▁persons	-9.56801
▁mortal	-9.56955
▁shook	-9.56955
▁Pa	-9.56967
▁rain	-9.56967
▁bold	-9.5705
ou	-9.57154
▁marry	-9.57184
▁showed	-9.57277
▁j	-9.5733
▁Captain	-9.57331
▁Li	-9.57364
▁feelings	-9.57381
▁lives	-9.57396
ex	-9.57412
▁du	-9.57416
▁shoulder	-9.57458
▁peculiar	-9.57553
▁Bingley	-9.57593
▁touched	-9.57673
▁hung	-9.57743
nce	-9.57801
ft	-9.57831
▁Monsieur	-9.57886
▁writing	-9.57913
▁appears	-9.57974
▁offer	-9.58271
▁explain	-9.58497
▁entirely	-9.58702
ca	-9.58771
▁broke	-9.58772
▁started	-9.58926
▁events	-9.58962
▁deck	-9.58976
▁science	-9.59206
ub	-9.59236
▁soft	-9.59258
▁foe	-9.59297
pa	-9.59375
ba	-9.59399
▁drawn	-9.59404
▁ba	-9.5948
she	-9.59511
▁break	-9.59512
▁gentlemen	-9.59547
qu	-9.59571
uch	-9.59584
▁Lord	-9.59926
▁difficulty	-9.59971
▁rock	-9.6003
▁finished	-9.60077
▁trust	-9.60186
▁twelve	-9.60186
▁drove	-9.60186
her	-9.60217
▁na	-9.6025
ile	-9.60306
▁music	-9.60456
▁ourselves	-9.60515
▁stream	-9.60515
▁prove	-9.60521
▁fit	-9.60556
▁touch	-9.60687
ened	-9.60727
▁gazed	-9.60769
▁worth	-9.60819
▁circle	-9.60845
▁Andrea	-9.60846
▁loud	-9.61134
▁visible	-9.61176
▁pointed	-9.61216
▁search	-9.61425
▁Gavroche	-9.61508
THE	-9.61513
▁Jane	-9.61518
▁changed	-9.61535
▁legs	-9.6158
▁creature	-9.61695
ily	-9.61724
▁observed	-9.61761
▁ear	-9.6186
▁scarcely	-9.61893
▁knees	-9.61902
▁quiet	-9.61947
▁path	-9.61998
io	-9.6203
▁opening	-9.62075
▁dust	-9.62111
▁N	-9.62178
▁seated	-9.62202
▁Edmond	-9.62212
▁meant	-9.62235
rus	-9.62475
▁bar	-9.62501
▁Gregor	-9.62512
▁vast	-9.62512
ped	-9.62526
▁forced	-9.62719
ain	-9.62744
▁prevent	-9.62781
▁sides	-9.6283
▁devil	-9.62848
▁storm	-9.62892
▁h	-9.62947
▁affair	-9.63062
▁cloud	-9.63062
▁Me	-9.63181
▁fifty	-9.63186
den	-9.63205
▁advance	-9.63505
▁existence	-9.63531
▁cook	-9.63547
▁aim	-9.63568
▁Sun	-9.63599
not	-9.63727
ew	-9.63754
ix	-9.63819
▁pen	-9.63826
▁Anna	-9.6389
▁caused	-9.64059
▁heads	-9.64123
▁education	-9.64207
▁moving	-9.64207
▁per	-9.64223
▁wound	-9.64393
▁questions	-9.64488
▁beheld	-9.64549
▁worse	-9.64549
▁fault	-9.64552
▁handsome	-9.64607
ak	-9.64649
▁Go	-9.64655
ts	-9.64847
▁trembling	-9.64893
▁Archive	-9.64896
▁ears	-9.65035
▁learned	-9.65404
ign	-9.65453
▁snow	-9.65457
▁Borís	-9.65584
▁Lucy	-9.65606
▁double	-9.6561
▁mass	-9.65872
▁Fauchelevent	-9.65931
▁Madeleine	-9.65931
▁frightened	-9.66014
▁key	-9.66026
▁inquired	-9.66051
Good	-9.66087
▁destroy	-9.66224
▁suffering	-9.66298
▁knowing	-9.66323
▁sharp	-9.66393
ze	-9.66401
ally	-9.66464
▁Literary	-9.66629
?"	-9.66657
of	-9.66665
▁br	-9.66925
▁simply	-9.6698
▁wrote	-9.6698
▁ladies	-9.66999
▁aside	-9.67036
gg	-9.6716
▁comfort	-9.67306
▁presented	-9.67319
▁clothes	-9.67393
▁Al	-9.67437
▁v	-9.67467
▁Just	-9.67522
▁gain	-9.67649
ible	-9.67651
▁letters	-9.67684
▁po	-9.67684
Illustration	-9.67685
▁rode	-9.67697
▁government	-9.67697
▁flight	-9.67701
▁thrown	-9.67786
tion	-9.67791
▁lead	-9.67807
▁condition	-9.68018
▁London	-9.6804
▁profound	-9.6804
▁bridge	-9.6808
▁Louis	-9.68086
▁sorrow	-9.68245
▁gentle	-9.68306
▁ships	-9.68365
▁houses	-9.68377
▁bird	-9.68382
ight	-9.68388
▁spoken	-9.68393
▁church	-9.68394
▁fierce	-9.68396
▁alive	-9.68402
▁sum	-9.68454
▁Their	-9.68466
▁Your	-9.68564
▁unable	-9.68618
▁walking	-9.68675
▁approached	-9.6874
og	-9.68752
▁bank	-9.68917
▁rushed	-9.69024
▁rule	-9.69036
▁empty	-9.69111
▁period	-9.69111
▁begun	-9.69126
▁However	-9.69133
▁goes	-9.69142
▁didn	-9.69388
▁military	-9.69471
▁occurred	-9.69479
▁gloomy	-9.69557
▁perceived	-9.69658
▁group	-9.69832
▁forgotten	-9.69867
rr	-9.69884
▁complete	-9.69962
▁vi	-9.70028
▁ma	-9.70072
▁uttered	-9.7011
morrow	-9.70146
▁hill	-9.70147
tre	-9.70172
▁nine	-9.70205
▁BOOK	-9.70283
▁cost	-9.70288
▁drive	-9.70313
▁unless	-9.70444
▁support	-9.70518
▁Homer	-9.70528
▁possession	-9.70609
night	-9.70855
ron	-9.70877
▁accept	-9.70885
▁occupied	-9.70923
▁fancy	-9.70924
▁share	-9.70928
▁expect	-9.71062
▁Ho	-9.71131
▁ordered	-9.71203
▁alarm	-9.71254
▁Bishop	-9.71289
▁Greece	-9.71289
▁philosophy	-9.71289
ler	-9.71297
▁property	-9.71299
▁companion	-9.71342
▁aid	-9.71395
▁engaged	-9.71403
▁fly	-9.71403
▁stern	-9.71421
end	-9.71501
▁content	-9.71623
▁Ah	-9.71812
▁servants	-9.71933
▁ring	-9.71976
IN	-9.72047
kin	-9.72086
▁remembered	-9.72139
▁crown	-9.72158
▁health	-9.72267
out	-9.72347
▁pleasant	-9.72396
▁space	-9.72402
▁sick	-9.72415
▁advanced	-9.72418
▁Ph	-9.72589
▁access	-9.72762
▁abbé	-9.72768
▁weak	-9.7279
▁perfect	-9.7285
▁start	-9.72922
▁talked	-9.73043
▁bell	-9.73051
▁streets	-9.73075
▁nose	-9.73081
▁remarked	-9.73108
▁sacred	-9.73141
▁spear	-9.73141
EN	-9.73197
▁fashion	-9.73462
▁influence	-9.73516
▁memory	-9.73516
▁mentioned	-9.73526
▁laughing	-9.73669
Where	-9.73728
▁curious	-9.73899
▁lo	-9.73957
▁considered	-9.73999
ue	-9.74028
▁delight	-9.74167
▁donations	-9.74312
▁bare	-9.74467
▁camp	-9.74492
▁charming	-9.74514
▁midst	-9.74664
▁satisfied	-9.74678
▁trademark	-9.74693
▁likely	-9.74698
▁habit	-9.74784
▁clouds	-9.74787
▁mi	-9.74833
▁difficult	-9.74875
▁prisoner	-9.74894
▁prepared	-9.74917
ug	-9.7496
▁Pétya	-9.75028
▁countenance	-9.75028
lin	-9.7515
▁depend	-9.7541
▁dying	-9.75412
▁girls	-9.75547
▁thirty	-9.75793
▁meeting	-9.75898
——”	-9.75992
▁Con	-9.7602
▁glanced	-9.76068
Let	-9.76103
▁circumstances	-9.76111
▁discovered	-9.76122
▁office	-9.76155
▁picture	-9.76177
ung	-9.76253
▁rapidly	-9.76346
▁Gatsby	-9.76563
▁Stubb	-9.76563
▁windows	-9.76581
▁mu	-9.76614
▁surprised	-9.76666
▁throw	-9.76811
▁maid	-9.76832
▁besides	-9.76888
▁distant	-9.76951
▁resumed	-9.76998
▁sought	-9.77055
▁month	-9.77156
▁papers	-9.77167
▁Father	-9.77173
ude	-9.77314
▁admit	-9.77318
▁march	-9.77322
▁emotion	-9.7734
uff	-9.77425
▁lad	-9.77429
▁reading	-9.77539
▁false	-9.77727
▁similar	-9.77731
▁lord	-9.77732
▁comp	-9.77792
▁higher	-9.77829
nd	-9.77841
ens	-9.78001
▁enormous	-9.78123
▁mysterious	-9.78123
▁priest	-9.78124
▁Telemachus	-9.78165
▁mention	-9.78201
▁sand	-9.78215
▁pure	-9.78215
▁Two	-9.78222
▁Come	-9.78234
▁direct	-9.7824
?—	-9.78256
▁mighty	-9.78271
▁1	-9.78298
how	-9.78326
▁star	-9.78406
▁breakfast	-9.78517
▁glory	-9.78517
▁supper	-9.78519
▁safe	-9.7852
▁suitors	-9.78523
▁fill	-9.78555
▁affairs	-9.78661
▁happen	-9.78709
ny	-9.7881
▁suffer	-9.78883
ueequeg	-9.78912
▁excellent	-9.78912
▁language	-9.78912
▁experience	-9.78948
▁Maximilian	-9.78958
▁obliged	-9.78961
▁sacrifice	-9.78965
va	-9.79078
my	-9.79214
▁yield	-9.79303
▁Petersburg	-9.79309
▁melancholy	-9.79309
▁sing	-9.79419
▁behold	-9.79443
▁served	-9.79573
▁lines	-9.79699
▁sprang	-9.79707
▁yellow	-9.79707
▁Only	-9.79772
▁clearly	-9.79864
▁height	-9.79876
this	-9.79943
▁beat	-9.80058
▁hall	-9.80068
▁waited	-9.80125
ite	-9.80235
▁week	-9.8046
▁example	-9.80509
▁uniform	-9.80509
▁Vasíli	-9.80509
▁laughed	-9.80655
▁shock	-9.80912
▁speech	-9.80912
▁places	-9.80972
▁hole	-9.81008
old	-9.81119
When	-9.8118
Your	-9.81193
cy	-9.81299
▁expressed	-9.81308
▁treasure	-9.81317
▁finger	-9.81364
▁offered	-9.81463
▁generally	-9.8153
▁paused	-9.81585
▁fr	-9.81606
▁produced	-9.8161
▁Every	-9.81719
▁Though	-9.81774
▁fatal	-9.81874
sha	-9.81961
▁recognized	-9.82014
▁Enjolras	-9.82131
▁roof	-9.82136
▁intention	-9.82166
▁Mercédès	-9.82168
▁lance	-9.82183
▁evident	-9.82307
▁Had	-9.82333
▁voices	-9.82427
ack	-9.82434
▁inter	-9.8246
▁unhappy	-9.82541
▁Even	-9.82542
▁Greek	-9.82646
▁parts	-9.82697
Y	-9.82727
▁express	-9.82883
house	-9.82916
▁clean	-9.82953
▁pride	-9.82956
▁fond	-9.82956
▁qu	-9.82981
▁spent	-9.82996
side	-9.83059
▁Tz	-9.83062
▁IN	-9.83066
ire	-9.8321
▁hot	-9.83313
low	-9.83315
▁German	-9.83366
▁situation	-9.83366
▁special	-9.83366
▁square	-9.83366
▁acquaintance	-9.83367
▁permission	-9.83368
▁Trojan	-9.83705
▁Beauchamp	-9.83781
▁slain	-9.83781
▁difference	-9.83783
qui	-9.83809
▁provide	-9.83837
▁fields	-9.83887
ning	-9.83896
▁flowers	-9.83956
▁decided	-9.84091
▁report	-9.84175
▁motion	-9.8418
▁pistol	-9.84198
▁Tom	-9.84205
▁obey	-9.84213
▁approach	-9.84213
Here	-9.84298
Not	-9.84305
▁interrupted	-9.84342
▁cart	-9.84366
▁faces	-9.84369
▁pressed	-9.84438
ev	-9.84529
▁Mar	-9.84581
▁narrow	-9.84616
▁addressed	-9.8473
▁dance	-9.84749
▁reader	-9.84779
▁lot	-9.84801
She	-9.84861
▁burning	-9.84942
▁author	-9.84997
▁explanation	-9.85036
▁monster	-9.85037
▁proof	-9.85045
▁information	-9.85052
▁beast	-9.85054
▁everybody	-9.8506
▁promised	-9.85165
▁harm	-9.85299
▁nearer	-9.85305
▁someone	-9.85323
▁immense	-9.85458
▁Greeks	-9.85563
▁mistake	-9.85772
▁mere	-9.85821
▁vessel	-9.8585
▁check	-9.85882
▁singular	-9.85884
act	-9.85888
▁due	-9.86112
▁required	-9.86213
▁trans	-9.863
▁Gillenormand	-9.86307
▁des	-9.86333
▁AND	-9.86421
▁tail	-9.86428
▁listening	-9.8645
▁rear	-9.86675
▁falling	-9.86734
▁yesterday	-9.86735
▁dropped	-9.8674
▁Lo	-9.86863
▁carefully	-9.86877
▁saved	-9.86918
▁mist	-9.8696
▁particularly	-9.87067
▁arrival	-9.87164
ING	-9.87184
teau	-9.87251
AR	-9.87267
▁cat	-9.87431
▁success	-9.87539
▁hearing	-9.8757
tes	-9.87584
▁proceed	-9.87638
▁gun	-9.87721
▁worthy	-9.87768
▁pray	-9.87914
▁sons	-9.88013
▁John	-9.88028
▁argument	-9.88028
▁liberty	-9.88028
ship	-9.88088
▁watched	-9.88121
▁taste	-9.88156
▁removed	-9.88178
K	-9.8818
▁powers	-9.88218
ea	-9.88414
2	-9.88417
▁haste	-9.88422
—”	-9.88436
▁honest	-9.88463
▁grandfather	-9.88465
▁cannon	-9.8847
▁affection	-9.88485
▁conceal	-9.88495
lus	-9.88558
▁forms	-9.88615
▁settled	-9.88632
▁mark	-9.8869
▁bowed	-9.887
▁inside	-9.88897
▁immortal	-9.88899
▁tongue	-9.88901
▁forehead	-9.88903
▁event	-9.88933
▁tale	-9.8909
▁amid	-9.8911
▁remains	-9.89155
▁firm	-9.89159
are	-9.89173
▁kissed	-9.8926
▁confess	-9.89288
▁stupid	-9.89338
▁sorry	-9.89339
▁Mu	-9.89486
▁lifted	-9.89561
!—	-9.89561
▁original	-9.89588
▁Gr	-9.8961
ng	-9.89694
▁sub	-9.89762
▁brain	-9.89841
All	-9.89844
▁remark	-9.89851
▁watching	-9.89906
rate	-9.89934
ES	-9.89944
▁Don	-9.89974
▁wear	-9.90189
▁shape	-9.90222
▁song	-9.90391
tro	-9.90433
▁grown	-9.90459
▁lock	-9.9047
▁prison	-9.90496
▁possessed	-9.90593
▁Scarecrow	-9.90665
▁private	-9.90665
▁huge	-9.90666
▁wake	-9.9067
▁miserable	-9.90672
▁misery	-9.90702
▁matters	-9.90704
▁wonderful	-9.91005
▁sail	-9.91048
▁wishes	-9.91066
▁fool	-9.91105
▁Grecian	-9.91112
▁absence	-9.91112
▁opportunity	-9.91112
▁looks	-9.91149
▁tear	-9.91169
▁believed	-9.91189
▁par	-9.91387
▁superior	-9.91529
▁modern	-9.9156
▁peasant	-9.91659
▁slave	-9.91688
▁Can	-9.91705
▁tomorrow	-9.91714
▁tea	-9.91738
sk	-9.9176
▁forty	-9.91857
[	-9.91882
▁supposed	-9.91982
▁shadows	-9.92072
▁descend	-9.92094
ide	-9.92114
▁roll	-9.92132
▁Still	-9.92153
▁exactly	-9.92164
▁previous	-9.92228
▁weight	-9.92311
OR	-9.92346
▁License	-9.92463
▁secure	-9.92463
▁conduct	-9.92517
law	-9.9253
▁fury	-9.9254
▁moon	-9.9256
▁fingers	-9.92601
use	-9.92615
ress	-9.92636
▁growing	-9.92643
light	-9.92647
ga	-9.92647
▁gives	-9.92651
▁rep	-9.9271
▁Ro	-9.92852
▁Anatole	-9.92918
▁blame	-9.92918
ao	-9.92928
▁attend	-9.92936
▁useless	-9.93041
▁Our	-9.9306
▁waves	-9.93146
▁beg	-9.93338
▁Un	-9.93371
▁request	-9.93374
▁unjust	-9.93399
ified	-9.934
▁avoid	-9.93428
▁loss	-9.93434
▁whales	-9.93436
▁fail	-9.9345
Go	-9.9358
▁quietly	-9.93696
▁Certainly	-9.93721
▁TO	-9.93767
▁dawn	-9.93833
▁measure	-9.93933
▁pick	-9.93935
▁experienced	-9.94252
▁counsel	-9.94294
▁choose	-9.94294
▁rum	-9.9433
▁Ba	-9.94389
▁require	-9.94392
▁cover	-9.94465
▁shame	-9.94484
▁speed	-9.94751
▁6	-9.94756
▁curiosity	-9.94757
▁voyage	-9.94757
▁method	-9.94757
▁wore	-9.94757
▁tower	-9.94932
▁ideal	-9.95016
▁asking	-9.95182
▁design	-9.95212
▁Silver	-9.95222
▁century	-9.95222
▁nurse	-9.95222
▁entrance	-9.95225
▁claim	-9.95237
▁Th	-9.95255
▁gaze	-9.95329
▁somewhat	-9.9541
▁add	-9.95425
▁ceased	-9.95496
▁Minerva	-9.95689
▁including	-9.95689
od	-9.95768
▁described	-9.95897
ran	-9.95924
▁Besides	-9.96089
▁Catherine	-9.96159
▁Piglet	-9.96159
▁horrible	-9.96159
▁grass	-9.96166
ping	-9.96181
▁Mina	-9.96217
▁retreat	-9.96278
▁heroes	-9.96298
For	-9.96304
▁rope	-9.96323
▁principle	-9.96387
cre	-9.96414
▁Nothing	-9.96419
▁proper	-9.96444
▁whispered	-9.96459
▁takes	-9.96462
▁class	-9.96587
▁labour	-9.9663
▁necessity	-9.9663
▁thrust	-9.96631
br	-9.96687
▁victory	-9.96698
▁dart	-9.96727
▁observe	-9.96744
ger	-9.96795
▁sigh	-9.9682
▁greatly	-9.96848
▁ti	-9.97081
▁strike	-9.97104
▁Before	-9.97153
▁mingled	-9.97183
▁dry	-9.97245
head	-9.97462
▁discover	-9.97523
▁clever	-9.97581
▁fetch	-9.97581
▁game	-9.97581
▁mankind	-9.97581
▁angel	-9.97583
▁mate	-9.9761
▁thank	-9.9761
▁Great	-9.97639
▁instantly	-9.97661
▁chest	-9.97684
▁band	-9.9774
▁books	-9.97764
▁Very	-9.98027
▁wolf	-9.98059
▁task	-9.98064
▁Having	-9.98073
▁arise	-9.98101
▁sa	-9.98128
IS	-9.98291
▁succeeded	-9.98364
da	-9.9844
car	-9.9844
▁possess	-9.98465
son	-9.98513
▁date	-9.98536
▁Debray	-9.9854
▁familiar	-9.9854
▁shield	-9.9854
▁throat	-9.9854
own	-9.9857
▁impression	-9.98574
▁feared	-9.98645
▁spirits	-9.98655
▁J	-9.98815
▁Are	-9.98868
board	-9.98887
▁freedom	-9.9903
▁born	-9.99057
▁grace	-9.99102
▁Sa	-9.99103
hi	-9.99114
ook	-9.99178
▁anxious	-9.99273
▁shown	-9.99291
▁shade	-9.99296
▁fighting	-9.99307
▁understanding	-9.99317
▁strain	-9.99511
even	-9.99563
▁obtain	-9.99663
▁agreed	-9.99673
▁crossed	-9.99705
ww	-9.99796
oc	-9.99812
▁flow	-9.99871
▁telling	-9.99889
▁guns	-9.99978
▁hollow	-9.99996
▁slept	-9.99996
▁instance	-9.99998
▁woe	-10
▁farther	-10.0003
▁pair	-10.0005
▁General	-10.0006
▁kiss	-10.0009
▁intended	-10.0016
ult	-10.0021
▁anger	-10.0023
▁dread	-10.003
▁scar	-10.0031
▁cloth	-10.0047
▁twice	-10.0049
ien	-10.0051
▁lamp	-10.0053
▁flies	-10.0054
▁convinced	-10.0057
▁putting	-10.0062
▁entering	-10.0087
there	-10.0089
▁birth	-10.0098
▁monarch	-10.0098
▁edge	-10.0099
▁prize	-10.0101
▁motionless	-10.0101
▁fa	-10.0103
▁Bo	-10.0122
▁completely	-10.013
▁May	-10.0133
▁demand	-10.014
▁descended	-10.0142
▁advice	-10.0147
▁cloak	-10.0148
▁tomb	-10.015
▁row	-10.0153
▁excited	-10.0157
▁catch	-10.0164
▁pulled	-10.0167
▁slight	-10.0172
▁ease	-10.0172
▁keeping	-10.0182
▁concealed	-10.0193
▁boats	-10.0194
▁adjutant	-10.0197
▁progress	-10.0197
▁pardon	-10.0198
▁reproach	-10.0201
▁considerable	-10.0201
▁delay	-10.0202
▁reality	-10.0206
▁produce	-10.0211
▁raise	-10.0211
▁determined	-10.0212
▁port	-10.0212
▁cur	-10.0213
▁Co	-10.0216
▁dogs	-10.0229
▁suit	-10.0237
▁Fantine	-10.0247
▁bottle	-10.0247
▁chariot	-10.0247
▁suffered	-10.0248
▁mistaken	-10.026
▁states	-10.027
▁names	-10.0288
utenberg	-10.0296
▁wicked	-10.0297
▁level	-10.0298
▁tax	-10.0298
▁2	-10.0302
▁personal	-10.0304
▁recognize	-10.0312
art	-10.0321
▁concerning	-10.0327
▁wretched	-10.0331
pped	-10.0339
tin	-10.0339
▁marked	-10.0344
▁mast	-10.0348
▁defend	-10.0348
▁directed	-10.0349
▁birds	-10.035
▁aware	-10.036
▁surrounded	-10.036
▁ranks	-10.0363
▁prepare	-10.0363
▁Lion	-10.0364
▁contain	-10.0369
▁stars	-10.0369
his	-10.0374
▁escaped	-10.0378
▁conscience	-10.0399
▁departure	-10.0399
▁winter	-10.0401
▁madame	-10.0402
▁fame	-10.0404
▁pushed	-10.0414
▁violent	-10.0426
▁bitter	-10.0433
▁prisoners	-10.0436
▁Sh	-10.0441
▁cheerful	-10.0448
Are	-10.0448
▁Socrates	-10.045
▁credit	-10.045
▁cousin	-10.045
▁extraordinary	-10.045
▁lighted	-10.0453
rov	-10.0465
▁finally	-10.0466
▁shoes	-10.0472
▁solemn	-10.0474
▁leaves	-10.0478
▁directly	-10.048
▁Wickham	-10.0501
▁lofty	-10.0501
▁ocean	-10.0501
▁phrase	-10.0501
▁regular	-10.0501
▁Collins	-10.0501
▁distress	-10.0501
▁goddess	-10.0501
"	-10.0506
▁explained	-10.0514
▁fix	-10.0514
▁highest	-10.0515
▁III	-10.0519
▁fee	-10.0525
▁hide	-10.0526
▁pieces	-10.0526
▁ta	-10.0532
▁assured	-10.0534
ons	-10.0551
▁fifteen	-10.0553
▁summer	-10.0553
▁rough	-10.0553
▁dull	-10.0562
▁bearing	-10.0563
▁moments	-10.0564
▁absolutely	-10.0573
▁murmured	-10.0577
▁colour	-10.0579
▁royal	-10.0603
▁Professor	-10.0604
▁excuse	-10.0604
▁savage	-10.0604
▁value	-10.0604
▁praise	-10.0604
▁hastily	-10.0604
▁confidence	-10.0604
▁feast	-10.0605
▁severe	-10.0605
ized	-10.0627
▁using	-10.0632
▁cla	-10.0634
ille	-10.0635
▁corpse	-10.064
aving	-10.0642
▁sire	-10.0645
▁flame	-10.065
▁Rome	-10.0656
▁staff	-10.0656
▁unfortunate	-10.0656
ris	-10.0658
Have	-10.0659
▁singing	-10.066
▁lightning	-10.0662
▁shudder	-10.0668
▁render	-10.0678
▁entire	-10.0685
▁Good	-10.0687
ied	-10.0687
▁tender	-10.0691
▁Pr	-10.0692
▁tu	-10.0696
▁drop	-10.0702
▁misfortune	-10.0703
▁mountain	-10.0704
fer	-10.0704
▁approaching	-10.0709
▁Starbuck	-10.0709
▁accustomed	-10.0712
▁stretch	-10.0721
▁parents	-10.0733
▁utter	-10.0755
▁England	-10.0761
▁coffin	-10.0761
▁splendid	-10.0761
▁truly	-10.0761
▁poet	-10.0762
▁queen	-10.0763
▁flying	-10.0769
▁fe	-10.0773
▁wretch	-10.0774
ple	-10.0784
▁souls	-10.0784
▁miles	-10.0803
▁becomes	-10.0812
▁wedding	-10.0814
ory	-10.0818
▁proved	-10.0819
▁school	-10.082
▁exist	-10.0827
▁station	-10.0829
▁rush	-10.0839
which	-10.0867
í	-10.0868
▁famous	-10.0868
▁afternoon	-10.0868
▁estate	-10.0868
▁everywhere	-10.087
▁Fernand	-10.0871
▁authority	-10.0871
ps	-10.0875
▁destroyed	-10.0876
▁heap	-10.0877
▁stands	-10.0886
▁whence	-10.089
▁rapid	-10.0895
▁owner	-10.0918
▁sovereign	-10.0921
oon	-10.0926
▁heat	-10.0929
▁7	-10.093
▁burn	-10.0932
▁arranged	-10.0936
▁combat	-10.0936
ette	-10.0945
▁rendered	-10.0963
▁Lady	-10.0974
▁loose	-10.0975
▁sentence	-10.0979
▁laughter	-10.098
▁eBook	-10.0982
▁spare	-10.0982
▁centre	-10.0983
▁Did	-10.0985
▁passion	-10.0987
▁groan	-10.0987
▁sur	-10.0991
some	-10.0993
who	-10.0993
tu	-10.1011
▁aunt	-10.102
▁division	-10.1029
▁official	-10.1029
▁veil	-10.1029
▁pipe	-10.1029
▁frame	-10.1029
▁dangerous	-10.1033
▁Jonathan	-10.1034
▁associated	-10.1036
▁hopes	-10.1047
▁refuse	-10.1047
▁serve	-10.1047
▁vague	-10.106
des	-10.1061
▁sleeping	-10.1065
▁th	-10.1074
▁generous	-10.1083
▁shirt	-10.1083
▁style	-10.1083
▁stepped	-10.1085
▁pause	-10.1103
▁carrying	-10.1112
Be	-10.1118
▁regarded	-10.112
▁Br	-10.1127
▁picked	-10.1131
form	-10.1131
▁rolled	-10.1132
ians	-10.1132
eus	-10.1136
▁occur	-10.1137
▁conscious	-10.1137
▁accompanied	-10.1138
▁smell	-10.1138
▁couple	-10.1138
▁hurt	-10.1138
▁genius	-10.1138
▁Lydia	-10.1138
▁Section	-10.1138
▁nice	-10.114
▁accepted	-10.1144
▁IV	-10.1165
ries	-10.1166
▁wealth	-10.118
▁wisdom	-10.1193
▁project	-10.1193
▁Woodman	-10.1193
▁Like	-10.1195
▁otherwise	-10.1197
▁relation	-10.1199
▁sewer	-10.1202
rge	-10.1207
▁Thy	-10.121
▁Have	-10.1216
ments	-10.1222
▁deserted	-10.1224
▁liked	-10.1226
▁shop	-10.1229
▁gloom	-10.1235
▁Pro	-10.1235
▁demanded	-10.1238
▁sheet	-10.1248
▁Courfeyrac	-10.1248
▁confused	-10.1248
▁skill	-10.1248
▁social	-10.1248
▁furious	-10.1249
▁tired	-10.1249
▁connection	-10.125
▁worn	-10.1255
▁rate	-10.126
▁assure	-10.1271
▁useful	-10.1279
▁fully	-10.1286
▁fled	-10.1289
▁den	-10.1297
▁Ali	-10.1297
▁fat	-10.1299
▁Su	-10.1303
▁convent	-10.1304
par	-10.1305
gr	-10.1309
▁somewhere	-10.131
▁Those	-10.1311
king	-10.1312
▁lit	-10.1314
ration	-10.1327
▁sufficient	-10.1336
▁Was	-10.1344
AN	-10.1346
▁today	-10.1352
ening	-10.1353
▁travel	-10.1355
▁possibly	-10.1359
▁skies	-10.1359
▁poison	-10.136
▁continually	-10.1366
▁resolved	-10.137
▁building	-10.1375
▁shouting	-10.1379
▁deeply	-10.1391
▁shake	-10.1404
Is	-10.1414
▁brilliant	-10.1416
▁refund	-10.1416
▁shining	-10.1416
▁Each	-10.1417
▁amount	-10.1418
▁murder	-10.1434
▁copies	-10.1472
▁gazing	-10.1472
▁Pequod	-10.1472
▁image	-10.1472
▁hidden	-10.1473
▁beam	-10.1481
▁warrior	-10.1483
ock	-10.1488
▁gathered	-10.149
port	-10.1491
▁arrive	-10.1493
time	-10.15
▁Russia	-10.1518
._--	-10.152
▁Daisy	-10.1529
▁extreme	-10.1563
▁upper	-10.1564
cle	-10.1574
▁moral	-10.1583
ina	-10.1584
▁Alexander	-10.1586
▁Bolkónski	-10.1586
▁column	-10.1586
▁imagination	-10.1586
▁native	-10.1586
▁sin	-10.1592
aw	-10.1594
▁castle	-10.1602
As	-10.1612
è	-10.1637
▁correct	-10.1644
▁victim	-10.1644
▁weapon	-10.1644
▁quarrel	-10.1644
▁weather	-10.1644
▁store	-10.1644
▁traveller	-10.1644
▁conception	-10.1646
▁cabin	-10.1651
▁efforts	-10.1653
▁sounds	-10.1653
▁lovely	-10.1657
▁True	-10.1659
▁leaning	-10.1661
.)	-10.1665
At	-10.1665
▁continue	-10.1665
▁trace	-10.1666
▁equally	-10.1686
bus	-10.1687
▁freely	-10.169
ner	-10.1693
▁[_	-10.1693
▁spoil	-10.1701
▁eternal	-10.1701
▁gesture	-10.1701
▁ordinary	-10.1701
▁physical	-10.1701
▁injustice	-10.1701
▁stick	-10.1701
▁powerful	-10.1702
▁gray	-10.1702
du	-10.1703
▁fruit	-10.1703
work	-10.1705
▁wings	-10.1714
ich	-10.1719
▁faith	-10.1728
▁hurried	-10.1736
▁Se	-10.174
▁peasants	-10.1747
▁writer	-10.1751
▁named	-10.1751
▁oil	-10.1756
▁Cavalcanti	-10.1759
▁aloud	-10.1759
▁consequence	-10.1759
▁consent	-10.176
Very	-10.1763
mer	-10.1767
▁enjoy	-10.1771
▁temper	-10.1775
▁touching	-10.1776
▁cheeks	-10.1781
aking	-10.1782
they	-10.1784
▁retired	-10.179
"]	-10.1794
▁absolute	-10.1794
▁hate	-10.1798
ee	-10.1798
▁astonishment	-10.1818
▁patient	-10.1818
▁gay	-10.1818
▁cries	-10.182
▁pour	-10.1824
▁First	-10.1827
▁Heaven	-10.1827
▁reward	-10.1832
▁se	-10.1836
ther	-10.1867
▁stronger	-10.1867
▁millions	-10.1868
▁provided	-10.1869
ey	-10.187
▁points	-10.1871
▁prefer	-10.1877
▁Arthur	-10.1877
▁Jondrette	-10.1877
▁ghost	-10.1877
▁innocent	-10.1877
▁entreat	-10.1877
▁pack	-10.1881
▁forces	-10.1885
▁page	-10.1889
▁animal	-10.1898
▁lest	-10.1903
▁Di	-10.1907
▁stairs	-10.1914
▁guests	-10.1918
▁candle	-10.1926
▁adventure	-10.1936
▁capital	-10.1936
▁Again	-10.1936
▁match	-10.1939
Monsieur	-10.1941
▁nail	-10.1942
utter	-10.1943
▁ere	-10.1953
▁dared	-10.1954
▁buried	-10.1995
▁wholly	-10.1997
▁New	-10.2
▁knife	-10.2005
▁attached	-10.2007
▁returning	-10.2017
▁calling	-10.2018
ye	-10.2019
ais	-10.2022
▁actions	-10.2024
▁lion	-10.2032
▁wheel	-10.2032
▁conquer	-10.2034
▁turns	-10.2038
▁played	-10.2045
▁i	-10.2051
▁ROMEO	-10.2055
▁Robin	-10.2055
▁gently	-10.2055
▁finding	-10.2057
▁frightful	-10.2062
▁leading	-10.2066
▁Once	-10.2073
▁finish	-10.2076
ging	-10.2082
▁nations	-10.2099
▁custom	-10.2114
▁Ajax	-10.2116
▁destruction	-10.2116
▁instinct	-10.2116
▁muttered	-10.2116
▁importance	-10.2116
▁skin	-10.2118
▁sheep	-10.2118
▁coward	-10.212
▁cool	-10.212
▁bid	-10.2122
▁Perhaps	-10.2141
▁kindness	-10.2148
▁desired	-10.2156
LE	-10.2161
ham	-10.2165
00	-10.217
▁lover	-10.2171
was	-10.2174
▁aspect	-10.2176
▁ignorant	-10.2176
▁During	-10.2179
▁profit	-10.2186
▁ca	-10.2191
▁driven	-10.2195
▁calls	-10.2199
▁pursue	-10.2201
van	-10.2203
int	-10.2216
ched	-10.2218
▁handed	-10.2224
ó	-10.2232
▁risk	-10.2237
▁palace	-10.2237
▁insult	-10.2241
▁cup	-10.2243
ju	-10.2244
tree	-10.2248
▁increased	-10.2259
▁cease	-10.2264
▁joined	-10.2273
have	-10.2277
cri	-10.228
▁prayer	-10.2287
▁interesting	-10.2288
▁surely	-10.2296
▁yard	-10.2297
▁wave	-10.2297
iness	-10.2298
▁Hélène	-10.2299
▁Patroclus	-10.2299
▁conclusion	-10.2299
▁distributing	-10.2299
▁vision	-10.2299
▁disposition	-10.2299
▁acquainted	-10.2302
▁chase	-10.2302
▁delighted	-10.2303
▁eating	-10.2307
▁pointing	-10.2314
▁concerned	-10.2334
▁VI	-10.2334
▁boots	-10.2346
AL	-10.2347
ered	-10.2348
▁staircase	-10.236
▁universal	-10.236
▁flesh	-10.236
▁restrain	-10.236
▁flood	-10.236
▁committed	-10.2362
▁spend	-10.2362
lon	-10.2362
▁Ar	-10.2365
▁Oz	-10.2372
▁pile	-10.2374
▁extended	-10.2378
ski	-10.2382
▁minds	-10.2392
Don	-10.2395
▁mount	-10.2405
▁Y	-10.2414
▁playing	-10.2415
▁Bertuccio	-10.2422
▁bosom	-10.2422
▁desperate	-10.2422
▁forgive	-10.2422
▁grey	-10.2423
▁uncle	-10.2428
▁built	-10.2429
with	-10.243
▁gained	-10.2431
▁hearts	-10.2432
▁dressing	-10.2448
▁struggle	-10.2449
▁hanging	-10.2457
elle	-10.2458
▁ro	-10.2464
▁fro	-10.2466
▁doors	-10.2466
▁stretched	-10.247
▁contained	-10.2472
▁Martians	-10.2472
▁mis	-10.2478
ute	-10.2479
▁Pi	-10.2479
▁triumph	-10.2482
▁Republic	-10.2485
▁colonel	-10.2485
▁enemies	-10.2485
▁located	-10.2485
▁minister	-10.2485
▁proportion	-10.2485
▁raising	-10.2485
▁Harker	-10.2485
▁error	-10.249
tte	-10.2497
gi	-10.2499
pose	-10.2502
ash	-10.2506
▁kindly	-10.2512
▁roar	-10.2513
▁guide	-10.2514
▁rang	-10.2533
▁comply	-10.2543
▁gleam	-10.2548
▁confusion	-10.2548
▁tyrant	-10.2548
▁swell	-10.2549
▁com	-10.256
▁becoming	-10.2561
▁West	-10.2564
▁wit	-10.2569
▁grasp	-10.257
▁fourth	-10.2574
▁separate	-10.2575
▁creatures	-10.2576
ai	-10.2578
▁erect	-10.2578
▁faithful	-10.2582
▁whisper	-10.2592
ency	-10.2598
▁angle	-10.2601
bu	-10.2602
▁regret	-10.2609
▁revolution	-10.2611
▁anxiety	-10.2611
▁surface	-10.2611
▁arose	-10.2611
▁hideous	-10.2613
now	-10.2626
▁succeed	-10.2634
▁numbers	-10.2638
▁jumped	-10.2639
▁swift	-10.2646
▁mounted	-10.2652
▁needed	-10.2653
▁slow	-10.2653
fully	-10.2657
▁depths	-10.2659
▁accident	-10.2674
▁George	-10.2675
▁Street	-10.2675
▁medium	-10.2675
unt	-10.2678
▁guilty	-10.2681
▁Mother	-10.2687
▁weeks	-10.2698
▁Car	-10.2701
UN	-10.2703
don	-10.2706
▁working	-10.2707
▁employed	-10.2711
▁bu	-10.2715
On	-10.2716
ction	-10.272
▁sailor	-10.2724
▁Pe	-10.273
▁distinguish	-10.2732
▁Bagratión	-10.2739
▁Rabbit	-10.2739
▁kitchen	-10.2739
▁wrath	-10.2739
▁straw	-10.2739
▁coast	-10.2739
▁busy	-10.2739
▁flower	-10.2739
▁bench	-10.274
▁charm	-10.274
._]	-10.2741
arm	-10.2746
▁branches	-10.2746
._	-10.2749
▁ne	-10.2752
▁porter	-10.277
▁seeking	-10.2772
▁shed	-10.2772
▁stones	-10.2773
▁pot	-10.2781
▁relations	-10.2796
▁campaign	-10.2803
▁political	-10.2803
▁welcome	-10.2803
▁Through	-10.2803
▁merry	-10.2804
▁permitted	-10.2805
▁revenge	-10.2805
▁facts	-10.2806
▁remaining	-10.2807
▁steel	-10.2807
IT	-10.2815
▁exception	-10.2825
Sir	-10.2829
▁consideration	-10.2831
▁30	-10.2832
▁“_	-10.2833
ans	-10.2833
▁meat	-10.2835
▁whenever	-10.2846
love	-10.2854
▁drag	-10.2862
▁council	-10.2868
▁pursuit	-10.2868
▁problem	-10.2868
▁worst	-10.2868
▁Christopher	-10.2872
▁Romeo	-10.2872
jo	-10.2873
▁agent	-10.2873
▁flash	-10.2885
▁hurry	-10.2892
Ha	-10.2896
▁thanks	-10.2904
▁OR	-10.2906
▁luck	-10.2922
▁Yu	-10.2924
gue	-10.2927
▁favour	-10.293
▁intelligence	-10.2934
▁vengeance	-10.2934
▁Next	-10.2934
▁flank	-10.2934
▁gradually	-10.2936
▁features	-10.2938
▁rank	-10.2941
tis	-10.2942
▁chin	-10.2971
▁Pávlovna	-10.2999
▁powder	-10.2999
▁resolution	-10.2999
▁grateful	-10.2999
▁steeds	-10.3
▁awful	-10.3003
▁paces	-10.3004
▁dim	-10.3014
▁Shall	-10.3025
▁assumed	-10.3026
▁flag	-10.303
▁fleet	-10.3039
▁elder	-10.3042
▁Wu	-10.3056
▁Moreover	-10.3066
▁Ne	-10.3068
▁waters	-10.3072
▁rooms	-10.3072
▁chosen	-10.3072
▁Sir	-10.3074
▁satisfaction	-10.3077
lac	-10.3082
▁examined	-10.3086
▁represent	-10.3091
well	-10.3098
▁pursued	-10.3105
▁Julie	-10.3108
▁hence	-10.3111
▁bones	-10.3113
▁8	-10.3115
▁apartment	-10.3119
▁painful	-10.3121
ace	-10.3124
▁eBooks	-10.3132
▁naturally	-10.3132
▁Nevertheless	-10.3132
▁stroke	-10.3132
▁mistress	-10.3133
▁capable	-10.3138
▁sell	-10.3139
▁composed	-10.314
▁attitude	-10.3145
▁wooden	-10.3145
▁eagerly	-10.3153
▁Sp	-10.3162
La	-10.3172
▁distinguished	-10.3174
cal	-10.3175
hood	-10.318
▁philosopher	-10.3185
▁reflection	-10.3188
uck	-10.3195
▁principal	-10.3199
▁distribution	-10.3199
▁material	-10.3199
▁throne	-10.3199
▁wept	-10.3201
ueen	-10.3206
▁mountains	-10.3207
▁quit	-10.3209
▁citizens	-10.3212
▁sailors	-10.3225
▁maintain	-10.3227
▁dreams	-10.3228
▁protected	-10.3239
ail	-10.3246
▁Will	-10.3247
▁knee	-10.3253
▁hunt	-10.3253
▁wing	-10.3255
▁tent	-10.3257
▁Meanwhile	-10.3267
▁astonished	-10.3267
▁YOU	-10.3267
▁lodge	-10.3267
▁stage	-10.3273
▁base	-10.3274
▁actually	-10.328
▁Thou	-10.3291
▁signal	-10.3301
▁reign	-10.3302
▁details	-10.3316
▁holy	-10.3318
▁existed	-10.3319
tain	-10.3326
▁chain	-10.3327
▁civil	-10.3331
▁apart	-10.3333
▁altogether	-10.3335
▁boast	-10.3335
▁consult	-10.3335
▁admitted	-10.3339
ah	-10.3352
▁encounter	-10.3363
▁torn	-10.3365
▁belonged	-10.3368
▁informed	-10.3369
One	-10.3384
▁drunk	-10.34
▁labor	-10.3403
▁activity	-10.3404
▁exercise	-10.3404
▁trial	-10.3404
▁solid	-10.3404
▁friendship	-10.3409
▁weep	-10.3431
▁trembled	-10.3434
▁retire	-10.3436
Of	-10.3437
▁animals	-10.3448
▁unexpected	-10.3449
uring	-10.3451
▁deserve	-10.3473
▁Sometimes	-10.3473
▁Italian	-10.3473
▁wants	-10.3474
▁exact	-10.3474
▁safety	-10.3475
▁quitted	-10.3475
▁flatter	-10.3476
▁plans	-10.3478
▁active	-10.3479
▁arch	-10.3487
▁II	-10.3498
▁gates	-10.3499
hole	-10.35
▁rid	-10.3501
▁slightly	-10.3505
▁perceive	-10.3506
▁Tell	-10.3507
▁pin	-10.3509
fa	-10.351
▁repeat	-10.3529
▁Europe	-10.3538
▁favor	-10.3539
▁driving	-10.3542
▁obvious	-10.3542
▁sensation	-10.3542
▁sank	-10.3542
▁sentiment	-10.3542
▁mercy	-10.3542
▁ver	-10.3546
▁protect	-10.355
▁portion	-10.3554
With	-10.3557
▁recall	-10.3571
▁falls	-10.3573
▁sisters	-10.3574
eous	-10.3578
▁abandoned	-10.3579
▁infinite	-10.3588
▁crying	-10.3603
▁proceeded	-10.3607
▁Suddenly	-10.3612
▁choice	-10.3612
▁pavement	-10.3612
▁swear	-10.3612
▁thither	-10.3612
▁keen	-10.3612
▁Sperm	-10.3612
▁sport	-10.3613
▁poetry	-10.3615
▁flat	-10.3616
▁anywhere	-10.362
▁connected	-10.3621
▁flames	-10.3621
ED	-10.3624
▁silently	-10.3625
Because	-10.3628
▁leaned	-10.3633
▁employ	-10.3634
▁desert	-10.3643
▁Rostóvs	-10.3646
▁declared	-10.3646
▁pace	-10.365
▁fearful	-10.3653
▁press	-10.3658
▁refused	-10.3659
▁Tu	-10.367
....”	-10.3671
ists	-10.3676
▁trap	-10.3678
Renaud	-10.3682
▁handkerchief	-10.3682
▁smooth	-10.3682
▁convict	-10.3683
▁Countess	-10.3683
▁hint	-10.3683
▁paying	-10.3685
▁mon	-10.3689
bra	-10.3689
hand	-10.369
▁heavens	-10.3693
▁desires	-10.3707
!"	-10.3708
▁weary	-10.3714
ov	-10.3718
ddle	-10.3725
▁oh	-10.3742
▁concern	-10.3742
▁vo	-10.3749
▁fold	-10.3749
▁horizon	-10.3753
▁comprehend	-10.3753
▁possibility	-10.3753
▁receiving	-10.3753
▁slaughter	-10.3753
▁sole	-10.3758
▁Ex	-10.3759
▁conviction	-10.376
▁license	-10.3762
ize	-10.3765
▁season	-10.3765
▁Per	-10.377
▁humanity	-10.3772
▁condemned	-10.3774
▁daughters	-10.378
▁witness	-10.3781
▁treat	-10.3782
▁distinct	-10.379
US	-10.38
▁arts	-10.3811
▁cruel	-10.3823
▁bodies	-10.3825
▁description	-10.3825
▁nevertheless	-10.3825
▁south	-10.3825
▁assistance	-10.3826
▁poem	-10.3828
▁awake	-10.383
▁agreeable	-10.3832
▁ice	-10.3833
▁Man	-10.3838
▁doubtless	-10.3841
▁Frenchman	-10.3843
▁size	-10.3848
▁knock	-10.3856
Co	-10.3857
▁kings	-10.3871
.’”	-10.3872
▁20	-10.3875
▁rare	-10.3876
val	-10.389
▁addition	-10.389
▁rolling	-10.3891
ough	-10.3891
Ma	-10.3893
▁obscure	-10.3897
▁absent	-10.3897
▁accent	-10.3897
▁assassin	-10.3897
▁flung	-10.3898
By	-10.3902
▁Long	-10.3909
▁Another	-10.391
ras	-10.3912
piece	-10.3914
▁fore	-10.3915
bound	-10.3916
▁trade	-10.3928
▁plainly	-10.3928
▁Russians	-10.3933
▁pit	-10.3943
▁created	-10.3949
▁owe	-10.395
▁da	-10.3953
ides	-10.3955
▁companions	-10.3959
▁anguish	-10.3969
▁cavalry	-10.3969
▁chimney	-10.3969
▁diamond	-10.3969
▁magnificent	-10.3969
▁religion	-10.3969
▁Nestor	-10.3969
▁extent	-10.3969
▁ashamed	-10.3969
▁foreign	-10.397
▁block	-10.397
Ch	-10.3978
▁frequently	-10.3984
▁vanished	-10.3993
▁ste	-10.3996
▁reflected	-10.4001
▁waste	-10.4004
▁17	-10.4005
▁prey	-10.4006
▁BE	-10.4009
▁principles	-10.401
▁resist	-10.4041
▁precious	-10.4042
▁milk	-10.4042
▁stout	-10.4042
▁stared	-10.4043
▁Italy	-10.4044
▁coachman	-10.4044
▁toil	-10.4074
▁hills	-10.4077
▁preserve	-10.4079
▁grant	-10.4081
▁treated	-10.4084
▁final	-10.4096
J	-10.4106
▁manage	-10.4114
▁contract	-10.4116
▁glancing	-10.4116
▁violence	-10.4116
▁source	-10.4116
▁apple	-10.4117
▁X	-10.412
▁vice	-10.4121
▁armies	-10.4129
▁apparently	-10.4129
▁beard	-10.413
▁setting	-10.4133
Thank	-10.4135
▁disorder	-10.4135
▁blessed	-10.4146
▁leap	-10.4149
▁hunger	-10.415
▁(_	-10.415
▁weeping	-10.416
ren	-10.4175
▁inn	-10.4179
▁cases	-10.4181
▁process	-10.4182
▁Alpátych	-10.419
▁ignorance	-10.419
▁curtain	-10.419
▁firing	-10.4191
▁cheer	-10.4193
▁Roman	-10.4194
▁remarkable	-10.4194
▁hoped	-10.4197
▁win	-10.4201
▁addressing	-10.4213
▁...	-10.422
shot	-10.4222
▁hang	-10.4226
▁cares	-10.4228
▁separated	-10.4232
ars	-10.4242
▁Look	-10.4244
▁bringing	-10.4249
▁ended	-10.425
▁lantern	-10.4264
▁nervous	-10.4264
▁striking	-10.4264
▁bolt	-10.4264
▁figures	-10.4265
▁foam	-10.4266
▁Bonaparte	-10.4268
Listen	-10.4268
rin	-10.427
▁badly	-10.4293
▁breathing	-10.43
▁wheels	-10.4309
▁eager	-10.4311
ST	-10.4312
▁Hence	-10.4313
▁follows	-10.4322
self	-10.4323
▁Com	-10.4336
▁uneasy	-10.4339
▁belief	-10.4339
▁whip	-10.434
▁midnight	-10.434
▁meantime	-10.4342
▁assist	-10.4342
▁comment	-10.4344
▁control	-10.435
▁Everything	-10.435
▁recollection	-10.4351
▁abandon	-10.4375
▁seize	-10.438
rum	-10.4382
▁gu	-10.4387
▁manners	-10.4391
▁banker	-10.4398
▁wearing	-10.4412
▁major	-10.4412
▁Glaucon	-10.4415
▁shoot	-10.4415
▁trick	-10.4415
▁purple	-10.4416
▁feeble	-10.4416
▁mood	-10.4417
▁governor	-10.4422
▁circumstance	-10.4428
▁exhausted	-10.443
ony	-10.4432
▁brothers	-10.4434
▁breaking	-10.4437
▁presently	-10.4438
▁pleasures	-10.444
▁younger	-10.4441
▁sofa	-10.4445
can	-10.4447
▁10	-10.4451
▁sink	-10.4454
▁previously	-10.4455
▁reasons	-10.4476
pan	-10.4477
▁branch	-10.4483
▁Eugénie	-10.4492
▁Mikháylovna	-10.4492
▁drank	-10.4492
▁suspicion	-10.4492
▁motive	-10.4492
▁baroness	-10.4492
▁June	-10.4493
▁doom	-10.4494
▁engagement	-10.4495
▁tide	-10.4502
▁daylight	-10.4504
▁sunk	-10.4515
Look	-10.4516
▁limbs	-10.4526
looking	-10.4541
▁color	-10.4542
ley	-10.4548
▁careful	-10.4556
▁formidable	-10.4568
▁musket	-10.4568
▁qualities	-10.4568
▁Bourienne	-10.4568
▁Witch	-10.4568
▁inhabitants	-10.4568
▁squadron	-10.4569
▁harpooneer	-10.4569
▁excitement	-10.4569
▁steward	-10.457
▁Christian	-10.4572
▁bend	-10.4573
▁lesson	-10.4577
▁eaten	-10.4582
bye	-10.4588
Did	-10.4602
▁neighbor	-10.4604
▁rocks	-10.4608
▁managed	-10.4619
ative	-10.462
lay	-10.4635
▁stayed	-10.4635
▁formerly	-10.4638
▁tin	-10.4639
▁handle	-10.4642
▁fur	-10.4642
▁tranquil	-10.4646
▁bourgeois	-10.4646
▁contrast	-10.4646
▁cottage	-10.4646
▁furniture	-10.4646
▁shepherd	-10.4646
▁upstairs	-10.4646
▁mystery	-10.4646
▁East	-10.4646
▁teach	-10.4655
▁rulers	-10.466
▁happens	-10.468
▁interests	-10.4681
▁affected	-10.4683
▁deliver	-10.4684
▁guess	-10.4684
▁ascend	-10.4684
▁glow	-10.4685
j	-10.4692
▁[1	-10.4695
▁constant	-10.4701
▁historians	-10.4714
▁failed	-10.4715
▁ph	-10.4718
▁usually	-10.472
most	-10.4722
▁August	-10.4724
▁stiff	-10.4724
RE	-10.4724
▁mask	-10.4726
▁Mars	-10.4727
▁merit	-10.4727
▁nodded	-10.4733
EL	-10.4738
▁text	-10.474
▁disturb	-10.4762
▁yards	-10.4765
▁visitor	-10.4766
▁button	-10.4769
▁gar	-10.4773
▁tra	-10.4776
ré	-10.4781
▁card	-10.4791
▁sorts	-10.4798
▁forgot	-10.4803
▁Waterloo	-10.4803
▁intimate	-10.4803
▁shone	-10.4803
▁dragged	-10.4803
▁unre	-10.4803
▁dancing	-10.4804
▁giant	-10.4805
▁agony	-10.4805
▁collection	-10.4806
▁VII	-10.4808
▁conditions	-10.4808
▁devoted	-10.4813
▁test	-10.4815
▁Trojans	-10.4817
▁announced	-10.4818
▁super	-10.482
▁nation	-10.482
▁included	-10.4827
▁detail	-10.4829
▁verse	-10.4829
▁arrow	-10.4831
▁pitch	-10.4831
▁related	-10.4832
▁Hans	-10.4853
amb	-10.4861
An	-10.4863
▁50	-10.4875
▁closely	-10.4875
▁comrades	-10.4878
▁lift	-10.488
▁solicit	-10.4881
▁Rostopchín	-10.4882
▁disgrace	-10.4882
▁practice	-10.4882
▁preceding	-10.4882
▁whirl	-10.4882
▁nonsense	-10.4882
▁utmost	-10.4882
▁crawl	-10.4882
▁fought	-10.4882
▁anchor	-10.4882
▁odd	-10.4884
▁Seward	-10.4884
▁profession	-10.4885
▁clock	-10.4887
▁alarmed	-10.489
▁weakness	-10.4893
alash	-10.4895
gor	-10.4905
Certainly	-10.4908
▁guest	-10.491
▁consist	-10.492
▁reaching	-10.4923
here	-10.4927
Tis	-10.493
▁breathe	-10.493
▁lack	-10.4932
ric	-10.4941
atch	-10.495
▁forever	-10.4951
▁attacked	-10.4959
▁endeavor	-10.4962
Méran	-10.4962
▁defeat	-10.4962
▁delicate	-10.4962
▁fortunate	-10.4962
▁glorious	-10.4962
▁numerous	-10.4962
▁observation	-10.4962
▁radiant	-10.4962
▁White	-10.4962
▁porch	-10.4962
▁string	-10.4962
▁reference	-10.4963
▁fever	-10.4966
▁consciousness	-10.497
▁inclined	-10.4972
▁sooner	-10.4974
▁fears	-10.498
6.	-10.4982
read	-10.5006
▁Guards	-10.5012
right	-10.5022
▁movements	-10.5026
ification	-10.5043
Avrigny	-10.5043
▁appointed	-10.5043
▁corridor	-10.5043
▁dignity	-10.5043
▁September	-10.5043
▁title	-10.5043
▁taught	-10.5043
▁bullet	-10.5045
▁bride	-10.5046
ux	-10.5047
▁exists	-10.5049
▁hungry	-10.5049
▁hid	-10.505
▁PRO	-10.5052
▁]	-10.5056
▁Most	-10.5057
▁lament	-10.5058
▁deceived	-10.5067
▁Which	-10.5072
▁City	-10.5076
▁signs	-10.5077
▁tremble	-10.5088
dia	-10.509
▁describe	-10.5091
orous	-10.5101
▁commands	-10.5103
keeper	-10.5103
▁recollect	-10.5112
▁Tin	-10.5114
▁remarks	-10.5114
▁galleys	-10.5121
▁goodness	-10.5122
▁heavenly	-10.5123
▁Marseilles	-10.5124
▁shaking	-10.5124
▁silk	-10.5124
▁debt	-10.5125
▁hostile	-10.5127
▁scale	-10.5128
long	-10.5129
▁absorbed	-10.5132
▁Vi	-10.5133
▁woods	-10.5135
▁expecting	-10.5136
▁precisely	-10.5137
▁machine	-10.5143
▁hit	-10.5151
▁ride	-10.5167
liness	-10.517
line	-10.5172
▁recalled	-10.5173
.3	-10.5181
▁immediate	-10.5183
▁burned	-10.5186
▁leader	-10.5186
▁locked	-10.5199
▁stir	-10.5204
▁JULIET	-10.5206
▁basket	-10.5206
▁breeze	-10.5206
▁destiny	-10.5206
▁throng	-10.5206
▁survey	-10.5206
▁shelter	-10.5206
▁presents	-10.5209
▁hatred	-10.521
▁torch	-10.5211
▁creation	-10.5214
▁queer	-10.5214
▁moreover	-10.5215
▁Mont	-10.5216
▁cell	-10.522
▁deed	-10.5221
▁buy	-10.5224
Take	-10.5234
▁halted	-10.5242
▁Sc	-10.5245
ked	-10.5252
iff	-10.5259
▁Je	-10.5265
pen	-10.5268
▁larger	-10.527
shop	-10.5273
▁cow	-10.5273
▁shouts	-10.5277
mate	-10.5278
ek	-10.5283
▁plate	-10.5288
▁Nantucket	-10.5289
▁clerk	-10.5289
▁fatigue	-10.5289
▁relative	-10.5289
▁invisible	-10.5289
▁oath	-10.5289
▁mild	-10.5289
▁intellectual	-10.5289
▁beloved	-10.5289
▁poets	-10.529
▁Haydée	-10.5294
▁Island	-10.5295
▁sold	-10.5295
▁throwing	-10.5295
▁purse	-10.5296
▁objects	-10.5297
▁pronounced	-10.5302
▁worked	-10.5302
▁Baron	-10.5303
▁About	-10.5305
ium	-10.5307
gu	-10.5311
▁wounds	-10.5312
ez	-10.5313
▁mission	-10.5319
▁soil	-10.532
▁limit	-10.5323
▁armed	-10.5329
▁ob	-10.5332
▁distribute	-10.5336
▁cab	-10.534
▁posted	-10.5343
lar	-10.5344
2.	-10.5348
▁linen	-10.5349
▁helped	-10.5352
ically	-10.5358
air	-10.5362
▁seal	-10.5365
▁belong	-10.5367
▁Apollo	-10.5372
▁armchair	-10.5372
▁gratitude	-10.5372
▁vault	-10.5372
▁dozen	-10.5372
▁harmony	-10.5373
▁kingdom	-10.5374
▁peer	-10.5375
▁hut	-10.5375
▁foolish	-10.5375
▁sang	-10.5377
▁showing	-10.5379
▁etc	-10.5379
▁plunged	-10.5385
▁attain	-10.5386
▁pur	-10.5388
▁creat	-10.5394
▁wishing	-10.5403
▁utterly	-10.541
▁crossing	-10.541
ois	-10.541
▁seas	-10.5413
did	-10.5414
▁complain	-10.5416
Uncle	-10.5424
▁amongst	-10.5431
▁inform	-10.5431
AT	-10.5431
▁loudly	-10.5431
▁Ga	-10.5439
▁Madam	-10.5444
▁neighbour	-10.5456
▁glimpse	-10.5456
▁magistrate	-10.5456
▁vehicle	-10.5456
▁reckon	-10.5456
▁inspector	-10.546
▁cock	-10.5462
▁drops	-10.5465
▁ce	-10.5468
▁concluded	-10.5469
▁begins	-10.5471
▁Du	-10.5474
▁fired	-10.5486
▁pole	-10.5488
▁scream	-10.55
▁hell	-10.5507
▁softly	-10.5517
▁Far	-10.552
▁stock	-10.5539
▁Majesty	-10.5541
▁advancing	-10.5541
▁agitated	-10.5541
▁battalion	-10.5541
▁brief	-10.5541
▁squire	-10.5541
▁duties	-10.5541
▁price	-10.5542
▁infantry	-10.5543
▁gown	-10.5543
▁idle	-10.5544
▁oars	-10.5545
nor	-10.5552
▁pierced	-10.5552
▁fastened	-10.5562
▁wet	-10.5568
ui	-10.557
▁suggested	-10.557
Will	-10.5574
▁performed	-10.5579
▁crack	-10.5584
▁perish	-10.559
af	-10.5596
Dear	-10.5603
▁rushing	-10.5608
▁goat	-10.5623
AS	-10.5623
▁admiration	-10.5626
▁bought	-10.5626
▁criminal	-10.5626
▁incident	-10.5626
▁javelin	-10.5626
▁judgment	-10.5626
▁unpleasant	-10.5626
▁funeral	-10.5626
aries	-10.5628
▁insist	-10.5628
▁blows	-10.5634
▁urged	-10.5645
▁VIII	-10.5645
▁considering	-10.5655
▁affect	-10.5663
▁hastened	-10.5663
▁mode	-10.5665
▁element	-10.5669
ach	-10.5669
▁mar	-10.5669
▁Soon	-10.5671
▁afford	-10.5672
▁bestow	-10.568
!...	-10.5681
bed	-10.5685
▁earnest	-10.5692
five	-10.5693
will	-10.5697
▁bag	-10.5712
▁Colonel	-10.5713
▁cunning	-10.5713
▁current	-10.5713
▁merchant	-10.5713
▁system	-10.5713
▁terrified	-10.5713
▁torture	-10.5713
▁XXI	-10.5717
▁Till	-10.5723
▁bedroom	-10.5724
▁cave	-10.5724
▁pal	-10.5727
▁mournful	-10.5728
▁nobody	-10.573
▁guardians	-10.5732
▁introduced	-10.5736
Alas	-10.5747
▁distributed	-10.575
▁murmur	-10.5759
▁term	-10.5786
▁sous	-10.5794
▁harpoon	-10.58
▁epoch	-10.58
▁heavily	-10.58
▁popular	-10.58
▁quality	-10.58
▁Men	-10.58
▁valet	-10.58
▁disease	-10.5801
▁pig	-10.581
▁Him	-10.581
▁hail	-10.5813
▁War	-10.5814
God	-10.5816
▁Many	-10.5822
place	-10.5822
▁galloped	-10.5825
—‘	-10.5831
▁mat	-10.5833
when	-10.5833
eng	-10.5834
▁feels	-10.5846
▁recover	-10.5847
▁crush	-10.5847
▁miss	-10.5853
▁format	-10.5863
▁visitors	-10.5868
▁fi	-10.587
▁thirst	-10.5874
5.	-10.5876
▁chiefs	-10.5878
▁fancied	-10.5887
▁practical	-10.5887
▁preparation	-10.5887
▁awoke	-10.5887
▁South	-10.5888
▁chapter	-10.5889
▁fun	-10.5893
▁XVIII	-10.5894
lie	-10.5898
▁enable	-10.5901
▁damage	-10.5903
▁distinctly	-10.5916
guard	-10.5922
▁sufficiently	-10.5924
▁vari	-10.5925
▁Ja	-10.5947
▁winds	-10.5949
▁objection	-10.5962
▁hussars	-10.5968
table	-10.5974
▁Eeyore	-10.5976
▁shriek	-10.5976
▁whaling	-10.5976
▁strict	-10.5976
▁rosy	-10.5976
▁humble	-10.5976
▁track	-10.5977
▁apply	-10.5977
▁Sunday	-10.5978
▁dining	-10.5979
▁slightest	-10.5981
▁meal	-10.5982
▁cellar	-10.5983
▁thoroughly	-10.5983
▁imm	-10.5983
lit	-10.5988
▁quarters	-10.5991
▁accomplished	-10.5993
ean	-10.6005
23	-10.6006
▁fo	-10.6008
▁Roo	-10.6025
▁bath	-10.6026
▁embrace	-10.6029
▁quo	-10.6031
ale	-10.6052
press	-10.6053
▁permit	-10.6063
RA	-10.6064
▁inferior	-10.6065
▁precaution	-10.6065
▁probable	-10.6065
▁loving	-10.6065
▁thread	-10.6066
▁tied	-10.607
▁perform	-10.6072
▁North	-10.6075
▁bandit	-10.6075
▁candles	-10.6081
▁vol	-10.6082
▁More	-10.6093
▁divided	-10.6095
▁backward	-10.61
▁causes	-10.6109
▁prayers	-10.6118
▁Take	-10.6125
▁poured	-10.6127
▁interested	-10.6135
▁deadly	-10.6145
▁drinking	-10.6149
▁artillery	-10.6153
▁defect	-10.6153
▁Leblanc	-10.6155
▁Penelope	-10.6155
▁harsh	-10.6155
▁relief	-10.6155
▁sympathy	-10.6155
▁whistle	-10.6155
▁sweep	-10.6155
▁Faria	-10.6157
▁spout	-10.6158
▁household	-10.6159
▁bears	-10.616
▁staring	-10.616
▁peril	-10.6163
▁anybody	-10.6166
▁ashes	-10.6176
▁west	-10.6185
▁rested	-10.6188
▁ate	-10.6188
Project	-10.6192
▁flee	-10.6194
▁subjects	-10.6196
▁troubled	-10.6198
▁reflect	-10.6201
▁assume	-10.621
▁cheek	-10.6212
uan	-10.6221
▁sighed	-10.6232
▁brains	-10.6235
▁Mo	-10.6236
ability	-10.6237
▁murderer	-10.6241
rb	-10.6242
▁plant	-10.6244
▁Ithaca	-10.6246
▁Neptune	-10.6246
▁refrain	-10.6246
▁resound	-10.6246
▁stories	-10.6246
▁whilst	-10.6246
▁manifest	-10.6246
▁helm	-10.6246
▁submit	-10.6246
▁slipped	-10.6247
▁sadly	-10.6247
▁flock	-10.6249
▁needs	-10.6256
▁imagined	-10.6262
▁invited	-10.6266
▁reasonable	-10.6267
▁El	-10.6271
vis	-10.6279
▁brown	-10.628
▁friendly	-10.6288
▁jump	-10.6298
▁corn	-10.6305
▁pr	-10.6305
▁elbow	-10.6305
▁gift	-10.6306
▁intervals	-10.6315
▁Chi	-10.632
▁victor	-10.6324
▁beating	-10.6331
▁awkward	-10.6338
▁Márya	-10.6338
▁agitation	-10.6338
▁angrily	-10.6338
▁cloister	-10.6338
▁craft	-10.6338
▁encourage	-10.6338
▁majesty	-10.6338
▁unusual	-10.6338
▁region	-10.6338
▁begged	-10.6338
khov	-10.6338
▁generals	-10.6339
▁daring	-10.634
▁Dick	-10.6345
▁Three	-10.6352
sail	-10.6355
▁suite	-10.6356
cap	-10.6357
▁borne	-10.6361
▁Would	-10.6364
▁indicated	-10.6365
glo	-10.6368
hu	-10.6375
▁offering	-10.638
▁IX	-10.6384
▁bands	-10.6386
”—	-10.639
▁halt	-10.6391
▁settle	-10.6395
▁fellows	-10.6409
body	-10.6423
bar	-10.6426
▁instrument	-10.643
▁oppress	-10.643
▁eleven	-10.643
▁costume	-10.6431
▁root	-10.6432
▁steam	-10.6432
▁load	-10.6434
▁sixty	-10.6437
▁FOR	-10.6437
▁display	-10.6441
▁list	-10.6441
fin	-10.6446
shin	-10.6453
ram	-10.6455
▁wouldn	-10.6463
put	-10.6467
▁loaded	-10.6471
▁prompt	-10.6485
rie	-10.6496
▁tap	-10.65
▁bade	-10.6506
▁declare	-10.6513
▁pains	-10.6521
▁gendarme	-10.6524
▁library	-10.6524
▁mirror	-10.6524
▁record	-10.6524
▁Revolution	-10.6524
▁salt	-10.6524
▁marble	-10.6525
▁naked	-10.6525
▁punishment	-10.6527
▁jest	-10.6533
▁Since	-10.6536
▁glittering	-10.6551
▁disturbed	-10.6572
▁file	-10.6573
▁knocked	-10.6577
▁gas	-10.6583
▁feed	-10.659
▁dig	-10.6594
▁partly	-10.6596
ught	-10.6609
▁dam	-10.6611
▁Borodinó	-10.6618
▁Flask	-10.6618
▁eldest	-10.6618
▁swept	-10.6618
▁valley	-10.6618
▁Abbé	-10.6618
▁involuntarily	-10.6618
▁sperm	-10.6618
▁induce	-10.6619
▁courtyard	-10.6619
book	-10.662
very	-10.6623
▁sustain	-10.6628
▁attracted	-10.6645
▁proposed	-10.6649
Father	-10.6659
▁displaying	-10.6661
▁based	-10.6671
▁folded	-10.6672
▁admire	-10.6677
where	-10.6682
ère	-10.6688
▁statement	-10.6691
▁Dmítrievna	-10.6713
▁Gardiner	-10.6713
▁valiant	-10.6713
▁accompany	-10.6713
▁honey	-10.6713
▁joke	-10.6714
▁affectionate	-10.6718
▁partner	-10.672
▁vow	-10.6721
▁shine	-10.6722
24	-10.6723
▁Har	-10.6724
▁couldn	-10.6725
▁crowded	-10.6726
▁peaceful	-10.6729
▁Te	-10.6734
ET	-10.6735
len	-10.6744
▁legal	-10.6752
Never	-10.6757
camp	-10.6758
▁recovered	-10.676
▁Hsi	-10.6763
▁firmly	-10.6765
then	-10.6768
gar	-10.6768
▁quiver	-10.6769
▁outer	-10.6778
▁artist	-10.6789
ture	-10.6806
▁Priam	-10.681
▁boulevard	-10.681
▁burden	-10.681
▁rules	-10.681
▁conflict	-10.681
▁appeal	-10.681
▁animated	-10.681
▁reverie	-10.681
▁type	-10.681
▁abode	-10.681
▁remote	-10.681
▁north	-10.681
▁requirements	-10.6811
▁Old	-10.6811
,000	-10.6812
come	-10.6815
▁overcome	-10.6819
▁Pan	-10.6826
▁baron	-10.6828
▁compared	-10.6828
▁philosophers	-10.683
▁helpless	-10.6835
▁painted	-10.6839
ray	-10.6842
▁furnished	-10.6847
▁mayor	-10.6848
post	-10.6849
▁inner	-10.685
▁east	-10.6855
▁preserved	-10.6857
▁maids	-10.6864
▁earn	-10.6875
▁shows	-10.6879
▁guardian	-10.6892
top	-10.6893
▁graceful	-10.6894
ised	-10.6901
▁bark	-10.6901
▁October	-10.6907
▁energy	-10.6907
▁evidence	-10.6907
▁medicine	-10.6907
▁sublime	-10.6907
▁monsieur	-10.6907
▁meadow	-10.6907
▁coarse	-10.6907
▁persist	-10.6907
▁steep	-10.6907
▁barrier	-10.6907
▁tight	-10.6907
▁characteristic	-10.6907
▁Peter	-10.6912
▁oak	-10.6915
▁armour	-10.6915
faced	-10.6916
▁starting	-10.6922
▁scattered	-10.6935
▁ruined	-10.6936
▁restored	-10.6941
▁nearest	-10.6943
▁editions	-10.6944
▁arrested	-10.6947
▁deny	-10.6948
▁parted	-10.6955
▁notion	-10.696
▁pretend	-10.6964
▁riding	-10.6966
▁plum	-10.6971
Can	-10.6979
▁withdraw	-10.6983
▁obtained	-10.6988
▁cord	-10.7005
▁Michael	-10.7005
▁Smolénsk	-10.7005
▁indifference	-10.7005
▁multitude	-10.7005
▁tumult	-10.7005
▁folly	-10.7005
▁beggar	-10.7006
▁undertake	-10.7009
▁repose	-10.7011
▁Englishman	-10.7012
▁discussion	-10.7013
▁Little	-10.7017
▁coach	-10.7024
▁Helen	-10.703
▁ahead	-10.703
▁hasten	-10.7031
izing	-10.7036
▁delightful	-10.7039
▁driver	-10.7041
Nothing	-10.7049
1]	-10.7053
mine	-10.7056
▁arrest	-10.7063
▁relate	-10.7068
▁resemble	-10.7069
▁15	-10.7079
▁dish	-10.7092
▁whereas	-10.7098
▁infant	-10.7102
▁applied	-10.7104
▁definite	-10.7104
▁prospect	-10.7104
▁solitary	-10.7104
▁supreme	-10.7104
▁sombre	-10.7104
▁summit	-10.7104
▁trousers	-10.7104
▁article	-10.7104
▁virtues	-10.7104
▁scrap	-10.7104
ept	-10.7107
▁Austrian	-10.7108
▁historical	-10.7113
▁mental	-10.7116
▁acquired	-10.7118
▁throughout	-10.712
Mr	-10.7127
▁aged	-10.7131
▁honours	-10.7137
▁bill	-10.7137
▁bless	-10.7141
▁thine	-10.7146
▁shades	-10.7147
Indeed	-10.7149
Just	-10.7149
stand	-10.7156
mar	-10.7157
za	-10.7158
just	-10.7161
See	-10.7163
▁convey	-10.7163
▁increase	-10.7168
▁vent	-10.717
▁sailed	-10.7194
your	-10.7196
race	-10.7198
▁deeds	-10.7198
bility	-10.7199
▁resign	-10.7201
▁indulge	-10.7203
▁completed	-10.7203
▁indifferent	-10.7204
▁Agamemnon	-10.7204
▁CAPULET	-10.7204
▁amazement	-10.7204
▁fragment	-10.7204
▁smoking	-10.7204
▁attendant	-10.7209
▁ruler	-10.7211
▁visited	-10.7212
▁highly	-10.7215
Really	-10.7215
▁coursers	-10.7216
▁bull	-10.7217
▁executed	-10.7217
▁ni	-10.7226
▁summoned	-10.7233
▁gifts	-10.7239
▁alas	-10.7245
▁suspect	-10.7264
▁spy	-10.7264
Aye	-10.7265
_)	-10.7268
▁seriously	-10.7282
▁endure	-10.7288
▁descending	-10.7297
▁Mor	-10.7297
lop	-10.7299
▁theory	-10.7302
▁Menelaus	-10.7305
▁assurance	-10.7305
▁fifth	-10.7305
▁providing	-10.7305
▁substance	-10.7305
▁compliment	-10.7305
▁impulse	-10.7305
▁vivid	-10.7305
▁established	-10.7305
▁bond	-10.7305
▁collar	-10.7305
▁commission	-10.7305
raw	-10.7305
get	-10.7306
▁sorrows	-10.731
▁Berg	-10.731
▁patron	-10.731
▁readily	-10.7311
▁holder	-10.7312
▁Neither	-10.7314
une	-10.7317
▁paw	-10.7324
▁pull	-10.7327
▁emerged	-10.7331
▁collected	-10.7342
▁awaiting	-10.7345
▁tar	-10.7352
▁bending	-10.736
iest	-10.7363
▁restore	-10.7373
four	-10.7374
▁execution	-10.7376
▁sending	-10.7393
▁attended	-10.7395
▁external	-10.7407
▁increasing	-10.7407
▁ridiculous	-10.7407
▁twilight	-10.7407
▁altar	-10.7407
▁hoarse	-10.7407
▁devour	-10.7407
▁greet	-10.7407
▁operation	-10.7407
nic	-10.7407
▁Ilion	-10.7408
▁hitherto	-10.7409
▁losing	-10.7409
▁couch	-10.741
▁Without	-10.7413
▁strangers	-10.7415
▁abruptly	-10.7417
▁chill	-10.7419
▁occasionally	-10.742
▁March	-10.7421
▁distinction	-10.7423
▁reports	-10.7423
▁unlike	-10.7424
▁prevented	-10.7427
▁masses	-10.7432
2]	-10.7435
▁constantly	-10.7438
ENT	-10.7439
▁lash	-10.744
▁mixed	-10.7441
atory	-10.7442
——	-10.7442
▁hurriedly	-10.7448
▁extremely	-10.7449
▁bestowed	-10.7455
▁consisted	-10.7459
▁dearest	-10.7459
Jo	-10.746
▁disappear	-10.7468
▁pressing	-10.7468
▁dwell	-10.7472
▁acknowledge	-10.7474
▁Ber	-10.7474
▁shuddered	-10.7486
▁chiefly	-10.7494
▁tempt	-10.7495
▁members	-10.7498
▁strangely	-10.75
▁Any	-10.7504
▁reported	-10.7506
▁celestial	-10.751
▁district	-10.751
▁plenty	-10.751
▁politics	-10.751
▁Wilson	-10.751
▁destined	-10.751
▁footsteps	-10.751
▁sentinel	-10.751
▁amiable	-10.751
▁abroad	-10.751
▁Sal	-10.7514
eth	-10.7516
▁nun	-10.7518
▁tenderness	-10.752
▁cutting	-10.752
▁disposed	-10.7522
▁Sch	-10.7523
▁leagues	-10.7524
▁log	-10.7524
▁CON	-10.753
▁grin	-10.7536
mail	-10.754
▁origin	-10.7555
▁violently	-10.7558
ome	-10.7565
▁thoughtful	-10.7571
▁furnish	-10.7573
mus	-10.7575
▁remove	-10.7578
▁inquire	-10.7578
▁lovers	-10.7591
▁sails	-10.7596
▁pun	-10.7601
ties	-10.7608
▁jaw	-10.7608
stone	-10.761
rid	-10.7612
▁shared	-10.7613
▁pine	-10.7613
▁unnatural	-10.7614
▁Providence	-10.7614
▁Sherlock	-10.7614
▁absurd	-10.7614
▁enthusiasm	-10.7614
▁occupation	-10.7614
▁refuge	-10.7614
▁solitude	-10.7614
▁hammer	-10.7614
▁inquiries	-10.7614
▁scheme	-10.7614
▁slope	-10.7614
▁steady	-10.7614
▁brass	-10.7614
▁Black	-10.7614
▁series	-10.7615
▁fox	-10.7615
▁status	-10.7615
▁elsewhere	-10.7616
▁notary	-10.7617
▁Cor	-10.7618
▁sack	-10.7619
▁pant	-10.7624
▁traversed	-10.7627
ient	-10.763
▁bowl	-10.765
▁resembled	-10.7652
▁copying	-10.7653
▁axe	-10.7658
▁crushed	-10.7662
▁purchase	-10.7683
▁LI	-10.7683
leg	-10.7685
▁await	-10.7688
▁En	-10.7707
▁mud	-10.7711
▁conquest	-10.7719
▁essential	-10.7719
▁pillow	-10.7719
▁threshold	-10.7719
▁trunk	-10.7719
▁reputation	-10.7719
▁defence	-10.7719
▁knot	-10.7719
▁dispute	-10.772
▁wives	-10.772
▁slid	-10.772
▁replies	-10.772
▁meanwhile	-10.7721
han	-10.7723
▁passionate	-10.7724
▁decree	-10.7726
▁July	-10.7734
▁carts	-10.7737
▁realized	-10.7749
▁fist	-10.7755
▁sounded	-10.7763
▁damp	-10.7766
▁Ly	-10.7774
boat	-10.7781
▁climb	-10.7785
dated	-10.7798
war	-10.7801
▁timid	-10.7802
▁notes	-10.7813
▁alike	-10.7815
▁hospital	-10.7822
▁strip	-10.7825
▁club	-10.7826
▁Peppino	-10.7826
▁audible	-10.7826
▁blaze	-10.7826
▁invitation	-10.7826
▁messenger	-10.7826
▁tempest	-10.7826
▁hesitation	-10.7826
▁harness	-10.7826
▁nerve	-10.7826
▁contact	-10.7827
▁XI	-10.7832
▁madness	-10.7844
▁***	-10.7847
▁Bear	-10.7853
▁discovery	-10.7855
▁captured	-10.7855
▁confined	-10.7856
▁11	-10.7857
▁border	-10.7864
▁displayed	-10.7872
▁doesn	-10.7875
▁insisted	-10.7876
Saint	-10.7879
▁ascended	-10.7881
▁gi	-10.7885
▁encountered	-10.7889
▁represented	-10.7891
▁divide	-10.7897
▁su	-10.7906
▁containing	-10.7914
link	-10.792
▁chose	-10.7922
▁High	-10.7929
▁proceeding	-10.7929
▁Charlotte	-10.7933
▁decision	-10.7933
▁female	-10.7933
▁folk	-10.7933
▁leather	-10.7933
▁portrait	-10.7933
▁civilization	-10.7933
▁transport	-10.7934
▁accordance	-10.7935
▁Gretel	-10.7935
▁ladder	-10.7936
▁dirty	-10.7937
▁heaps	-10.7938
▁dislike	-10.7939
▁Grand	-10.7943
▁breathless	-10.7944
▁particulars	-10.7947
▁rags	-10.7948
iz	-10.7958
ka	-10.7963
▁gore	-10.797
TH	-10.7973
▁Toto	-10.7976
▁strongly	-10.7977
▁noon	-10.798
▁rat	-10.7986
Greek	-10.7987
ground	-10.7988
aunt	-10.8001
▁persuade	-10.8006
▁retain	-10.8008
▁dash	-10.8009
gon	-10.8012
▁commanded	-10.8024
▁wanting	-10.8028
▁govern	-10.8029
TED	-10.803
coat	-10.8033
▁prayed	-10.8034
▁Austerlitz	-10.8042
▁dwarf	-10.8042
▁martial	-10.8042
▁physician	-10.8042
▁slang	-10.8042
▁translation	-10.8042
▁message	-10.8042
▁despise	-10.8042
▁abyss	-10.8042
▁compliance	-10.8042
▁cask	-10.8043
▁triumphant	-10.8046
▁leads	-10.805
illa	-10.8051
▁trip	-10.8051
▁misfortunes	-10.8054
▁celebrated	-10.8055
▁senses	-10.8058
▁tip	-10.8061
▁marshal	-10.8064
▁boxes	-10.8075
IES	-10.8083
▁fairly	-10.8084
▁expectation	-10.8084
▁habits	-10.8112
▁collect	-10.8113
▁volunteers	-10.8121
ease	-10.8127
▁rays	-10.8132
4]	-10.8135
▁Cap	-10.8139
▁steer	-10.8144
▁calmly	-10.8147
cut	-10.8151
▁successful	-10.8152
JECT	-10.8152
▁NURSE	-10.8152
▁William	-10.8152
▁admirable	-10.8152
▁benefit	-10.8152
▁carpenter	-10.8152
▁devotion	-10.8152
▁landlord	-10.8152
▁monstrous	-10.8152
▁phantom	-10.8152
▁sensible	-10.8152
▁grape	-10.8152
▁proposal	-10.8152
▁rival	-10.8152
▁assembled	-10.8152
▁tolerably	-10.8152
▁Full	-10.8152
▁Ta	-10.8152
▁reject	-10.8154
▁counter	-10.8157
▁comrade	-10.8157
▁partial	-10.8168
▁flushed	-10.817
▁ample	-10.8174
▁united	-10.818
▁Both	-10.8185
▁departed	-10.8188
5]	-10.8188
▁letting	-10.8189
uite	-10.8189
8]	-10.819
▁bows	-10.8202
▁limited	-10.8206
▁hum	-10.8206
▁learning	-10.8211
▁online	-10.8213
6]	-10.8217
turn	-10.822
▁remind	-10.8222
tus	-10.8233
▁instructions	-10.8234
▁gardener	-10.8243
▁foundation	-10.8243
headed	-10.8256
▁hither	-10.8262
wo	-10.8263
▁People	-10.8263
▁Pontmercy	-10.8263
▁Vampa	-10.8263
▁comparison	-10.8263
▁salute	-10.8263
▁situated	-10.8263
▁fiery	-10.8263
▁converse	-10.8263
▁president	-10.8263
yard	-10.8265
▁procureur	-10.8265
▁talent	-10.8265
▁wax	-10.8266
▁detain	-10.8274
▁Information	-10.8276
▁fog	-10.8281
▁tailor	-10.8281
aught	-10.8282
▁overwhelmed	-10.8285
!_	-10.8291
hy	-10.8293
▁inspired	-10.8296
▁parties	-10.8302
▁embraced	-10.8308
▁risen	-10.8309
fold	-10.8319
From	-10.8321
rig	-10.8325
▁Never	-10.8332
fire	-10.8337
east	-10.834
▁propose	-10.8341
▁frequent	-10.8352
▁exclamation	-10.8375
▁feather	-10.8375
▁Chinese	-10.8375
▁GUTENBERG	-10.8375
▁Thrasymachus	-10.8375
▁families	-10.8375
▁gigantic	-10.8375
▁quantity	-10.8375
▁seldom	-10.8375
▁sleeve	-10.8375
▁variety	-10.8375
▁wolves	-10.8375
▁Baker	-10.8375
▁ceiling	-10.8375
▁whither	-10.8376
▁wrapped	-10.8376
▁organ	-10.8376
▁compelled	-10.8376
▁woke	-10.8377
Wait	-10.8378
▁Kung	-10.8379
▁grating	-10.8379
▁childhood	-10.838
▁battery	-10.8381
▁fence	-10.8381
▁comfortable	-10.8384
▁lively	-10.8384
▁vessels	-10.8384
▁steal	-10.8385
▁hussar	-10.8386
▁contented	-10.8386
▁lightly	-10.8387
▁lane	-10.8392
His	-10.8397
ual	-10.8412
▁16	-10.8414
▁dashed	-10.8417
▁outline	-10.8418
▁13	-10.8419
▁riches	-10.8423
cast	-10.8425
▁resting	-10.8432
why	-10.8438
26	-10.8439
▁accord	-10.8446
▁14	-10.845
▁warn	-10.8456
▁total	-10.8459
▁ram	-10.8464
▁darted	-10.8472
▁toils	-10.8474
▁Bar	-10.8477
aged	-10.8477
▁Christ	-10.8486
▁commit	-10.8487
▁Combeferre	-10.8489
▁Godalming	-10.8489
▁Longbourn	-10.8489
▁Mabeuf	-10.8489
▁Montparnasse	-10.8489
▁contempt	-10.8489
▁cylinder	-10.8489
▁intelligent	-10.8489
▁remorse	-10.8489
▁website	-10.8489
▁Atrides	-10.8489
▁ANY	-10.8489
▁Among	-10.8489
▁computer	-10.8489
▁inquiring	-10.8489
▁discern	-10.8489
▁waistcoat	-10.8489
▁annoy	-10.8489
▁ugly	-10.8489
rous	-10.8492
▁rude	-10.8493
▁passions	-10.8495
▁Near	-10.8496
▁balls	-10.8497
▁joyous	-10.8501
▁member	-10.8502
▁hesitated	-10.8506
▁provisions	-10.8507
▁Right	-10.8519
▁pane	-10.8522
▁revealed	-10.8524
▁fees	-10.8529
dom	-10.8544
▁drawer	-10.8544
ature	-10.8547
while	-10.8547
▁Parisian	-10.8551
[1	-10.8557
▁passes	-10.8562
▁snatch	-10.8563
▁danced	-10.8588
17	-10.8589
▁obeyed	-10.86
▁disguise	-10.8604
▁dungeon	-10.8604
▁majestic	-10.8604
▁reception	-10.8604
▁significant	-10.8604
▁supply	-10.8604
▁stuck	-10.8604
▁carpet	-10.8604
▁swing	-10.8604
▁Indian	-10.8604
▁tramp	-10.8604
▁gracious	-10.8605
▁moonlight	-10.8605
▁saddle	-10.8606
▁beach	-10.8606
acious	-10.861
▁puff	-10.8612
▁personage	-10.8617
▁spur	-10.8621
▁dine	-10.8631
▁replaced	-10.864
▁si	-10.8641
▁dire	-10.8649
ici	-10.8651
▁replace	-10.8655
▁shout	-10.8655
▁onto	-10.8657
▁engage	-10.8678
13	-10.8679
▁interrupt	-10.868
▁decide	-10.8684
upon	-10.8686
▁interior	-10.8689
▁Alas	-10.8691
oh	-10.8704
▁breathed	-10.8706
▁joyful	-10.871
▁signed	-10.8715
aire	-10.8717
▁skilful	-10.872
▁esteem	-10.872
▁examination	-10.872
▁examining	-10.872
▁mutual	-10.872
▁preparing	-10.872
▁significance	-10.872
▁species	-10.872
▁aloft	-10.872
▁ornament	-10.872
▁intense	-10.872
▁robber	-10.8721
▁Lucas	-10.8722
▁mouse	-10.8723
▁baby	-10.8723
kov	-10.8726
▁pool	-10.8726
▁hotel	-10.8728
▁stable	-10.8728
▁cities	-10.8728
gro	-10.873
▁Tra	-10.8738
▁recently	-10.8738
▁million	-10.8742
▁horn	-10.8742
▁maiden	-10.8747
▁floating	-10.8748
▁ventured	-10.8754
▁somehow	-10.8755
▁tend	-10.8756
▁illness	-10.8756
▁dwelling	-10.8768
ache	-10.8769
eau	-10.877
▁warning	-10.8772
▁performing	-10.8775
▁belonging	-10.8779
▁sounding	-10.8782
▁suggest	-10.8785
▁discuss	-10.8787
▁safely	-10.879
▁fright	-10.8802
cia	-10.8818
▁deeper	-10.8829
▁slip	-10.8836
▁swim	-10.8838
uincey	-10.8838
▁Jonah	-10.8838
▁brazen	-10.8838
▁communication	-10.8838
▁occupy	-10.8838
▁receipt	-10.8838
▁sergeant	-10.8838
▁sixteen	-10.8838
▁uncertain	-10.8838
pinay	-10.8838
▁unwilling	-10.8838
▁plot	-10.8838
▁crest	-10.8838
▁kick	-10.8838
▁yonder	-10.8839
▁NOT	-10.8839
▁compassion	-10.8841
▁Jim	-10.8842
▁bloody	-10.8849
▁Whose	-10.8851
▁attentively	-10.8852
▁wagon	-10.8857
▁Iliad	-10.8858
7]	-10.8859
oke	-10.8869
▁printed	-10.8871
▁panting	-10.8885
▁cleared	-10.8885
▁bi	-10.8894
▁missing	-10.8896
▁spectacles	-10.8901
yes	-10.8905
stead	-10.8905
▁ashore	-10.8907
▁entertain	-10.8914
▁include	-10.8921
▁examine	-10.8921
▁youthful	-10.8926
▁ray	-10.8926
▁doll	-10.8931
▁Cossacks	-10.8933
▁non	-10.8933
▁warriors	-10.8933
▁actual	-10.8934
▁Er	-10.8948
▁individuals	-10.8954
▁Barrois	-10.8957
▁bodily	-10.8957
▁constitution	-10.8957
▁despite	-10.8957
▁jailer	-10.8957
▁obscurity	-10.8957
▁rejoin	-10.8957
▁stomach	-10.8957
▁tradition	-10.8957
▁earlier	-10.8957
▁volume	-10.8957
▁reverse	-10.8957
▁fortnight	-10.8957
▁magic	-10.8957
▁student	-10.8958
▁owing	-10.8958
▁—_	-10.896
▁grim	-10.8964
▁Lizzy	-10.8965
▁hedge	-10.8966
▁somebody	-10.8972
▁perch	-10.8977
▁frost	-10.8979
▁derived	-10.898
▁Cossack	-10.8981
▁Martian	-10.8981
▁goal	-10.8983
▁Hill	-10.8988
▁lowered	-10.8994
▁harmoni	-10.8994
▁rent	-10.8995
look	-10.8997
pot	-10.8997
▁swiftly	-10.9001
▁farm	-10.9001
▁wherever	-10.9015
▁hiding	-10.9019
0]	-10.9022
▁endeavour	-10.9037
▁vanish	-10.9037
▁mix	-10.9039
▁inspire	-10.9041
▁indicate	-10.9041
▁advise	-10.9041
hearted	-10.9049
▁impatient	-10.9054
phe	-10.9062
▁Baptistin	-10.9077
▁Emmanuel	-10.9077
▁newspaper	-10.9077
▁redoubt	-10.9077
▁domestic	-10.9077
▁ivory	-10.9077
▁Owl	-10.9077
▁changing	-10.9077
▁bulk	-10.9077
▁exceedingly	-10.9077
▁yon	-10.9077
▁reverend	-10.9078
dress	-10.9078
▁salon	-10.9078
truck	-10.9078
▁favorite	-10.9078
▁Enter	-10.9081
▁lake	-10.9082
▁shrugg	-10.9083
▁market	-10.9084
▁headlong	-10.9087
▁inward	-10.9089
▁beaten	-10.9089
▁12	-10.9099
▁reflections	-10.9104
▁boot	-10.9106
though	-10.9114
▁mile	-10.9119
venge	-10.9122
▁additional	-10.913
tell	-10.9135
▁elements	-10.9139
Mar	-10.914
▁guessed	-10.914
▁sinking	-10.9145
▁killing	-10.9148
box	-10.9148
▁comb	-10.915
▁RE	-10.9152
ifying	-10.9153
▁grasped	-10.9155
▁stuff	-10.9159
▁select	-10.9159
▁deceive	-10.9163
▁determine	-10.9163
▁wi	-10.9169
▁unity	-10.917
▁dense	-10.917
aux	-10.9185
▁assert	-10.9189
▁duel	-10.919
owl	-10.9191
▁interpret	-10.9192
▁Kanga	-10.9199
▁Spanish	-10.9199
▁contrive	-10.9199
▁emperor	-10.9199
▁gymnastic	-10.9199
▁haughty	-10.9199
▁indescribable	-10.9199
▁refresh	-10.9199
▁religious	-10.9199
▁sinister	-10.9199
▁valuable	-10.9199
▁Several	-10.9199
▁decline	-10.9199
▁veins	-10.9199
▁peep	-10.9199
▁echo	-10.9199
▁blew	-10.9199
▁ribbon	-10.9199
▁statue	-10.92
▁banish	-10.92
▁links	-10.9201
▁waking	-10.9203
▁sex	-10.9206
▁likewise	-10.921
▁limitation	-10.9212
▁illuminated	-10.9214
▁upright	-10.9222
0,000	-10.9223
▁deprived	-10.9226
▁wealthy	-10.9229
▁depth	-10.923
▁interval	-10.923
▁lately	-10.9234
▁marrying	-10.9237
▁wondering	-10.9254
Tell	-10.9268
▁depart	-10.9272
maid	-10.9278
▁Am	-10.9278
▁Lu	-10.9281
load	-10.9281
▁exchange	-10.9286
▁Because	-10.9295
HIS	-10.9302
take	-10.9322
ology	-10.9323
▁exceed	-10.9323
▁Swift	-10.9323
▁Tíkhon	-10.9323
▁Virgil	-10.9323
▁Watson	-10.9323
▁applicable	-10.9323
▁conjecture	-10.9323
▁horrid	-10.9323
▁piercing	-10.9323
▁poverty	-10.9323
▁serfs	-10.9323
▁shark	-10.9323
▁shift	-10.9323
▁simplicity	-10.9323
▁slumber	-10.9323
▁uneasiness	-10.9323
▁velvet	-10.9323
ponine	-10.9323
▁scorn	-10.9323
▁dried	-10.9323
nceforth	-10.9323
▁breed	-10.9323
▁creak	-10.9324
▁repair	-10.9324
▁villain	-10.9325
▁godlike	-10.9327
▁travelling	-10.9327
IVE	-10.9332
▁barrel	-10.9337
▁Juno	-10.9338
▁intently	-10.9341
▁te	-10.9341
▁intend	-10.9368
▁pet	-10.9369
▁awaited	-10.9371
▁blessing	-10.9375
RY	-10.9378
OW	-10.9379
▁anxiously	-10.9383
▁Give	-10.9389
think	-10.9394
spread	-10.9394
▁Sw	-10.9395
▁belongs	-10.9396
▁hunting	-10.94
▁traces	-10.9407
▁confine	-10.9412
▁venture	-10.9413
rist	-10.942
▁apparent	-10.9424
▁borrow	-10.9448
▁autumn	-10.9448
▁clutch	-10.9448
▁draught	-10.9448
▁equipment	-10.9448
▁interview	-10.9448
▁privilege	-10.9448
▁resource	-10.9448
▁balance	-10.9448
▁wreck	-10.9448
▁swarm	-10.9448
▁cavern	-10.9448
▁inquiry	-10.9448
▁studied	-10.9448
▁Champ	-10.9448
▁Morris	-10.9448
▁fowl	-10.9449
▁Duke	-10.9449
▁Moby	-10.9449
▁balloon	-10.9449
▁cake	-10.9452
▁scent	-10.9459
▁spies	-10.946
ware	-10.9461
▁adored	-10.9466
Ho	-10.9468
▁coin	-10.9481
▁gather	-10.9492
▁shower	-10.9499
▁pulling	-10.95
two	-10.9501
▁endless	-10.9506
▁Poor	-10.9507
▁properly	-10.9511
▁disdain	-10.9513
▁rout	-10.9524
▁alley	-10.9525
▁needle	-10.953
hold	-10.953
▁conceive	-10.9538
▁bone	-10.9541
▁spin	-10.9553
▁guilt	-10.9561
▁marks	-10.9567
▁brush	-10.9574
▁Bennigsen	-10.9574
▁contemplation	-10.9574
▁crept	-10.9574
▁innocence	-10.9574
▁narrative	-10.9574
▁rascal	-10.9574
▁cigar	-10.9574
▁protest	-10.9574
▁facing	-10.9574
▁spell	-10.9574
▁array	-10.9574
▁argue	-10.9575
▁Petit	-10.9575
▁bind	-10.9575
▁favourite	-10.9575
▁authorities	-10.9577
▁lust	-10.958
▁unfold	-10.958
▁Chang	-10.9587
▁sobs	-10.9588
▁accused	-10.9593
▁Mamma	-10.9596
rip	-10.9616
▁charms	-10.962
▁sorrowful	-10.9622
▁sway	-10.9638
▁smaller	-10.9639
▁owed	-10.9639
Perhaps	-10.9648
wood	-10.9648
▁repeating	-10.9651
▁prevail	-10.9662
acy	-10.9671
open	-10.9689
close	-10.9696
00,000	-10.9696
▁XVI	-10.9701
▁Speránski	-10.9702
▁assembly	-10.9702
▁behaviour	-10.9702
▁catastrophe	-10.9702
▁eagle	-10.9702
▁extremity	-10.9702
▁revolt	-10.9702
▁skirt	-10.9702
▁spectre	-10.9702
▁supposing	-10.9702
▁thief	-10.9702
▁trench	-10.9702
▁widow	-10.9702
▁blade	-10.9702
▁eighteen	-10.9702
▁subtle	-10.9703
▁neighborhood	-10.9703
▁et	-10.9704
▁gale	-10.9705
▁acted	-10.9705
▁grain	-10.9705
▁helmet	-10.9706
▁noticing	-10.9707
▁linger	-10.9709
▁stolen	-10.971
▁calculated	-10.9718
▁cling	-10.9724
▁jet	-10.9724
▁Bu	-10.9725
lock	-10.9732
▁answering	-10.9738
?...	-10.9739
▁bleeding	-10.9739
▁hath	-10.9743
▁demands	-10.9747
▁eighty	-10.9762
▁swa	-10.9762
ular	-10.9766
Pooh	-10.9778
▁arrange	-10.9794
▁capture	-10.9797
past	-10.9799
▁youngest	-10.98
▁[2	-10.98
more	-10.9806
master	-10.9809
kh	-10.9828
▁spark	-10.9831
▁diminish	-10.9832
▁exhibit	-10.9832
▁patience	-10.9832
▁vigorous	-10.9832
▁Magloire	-10.9832
▁Whether	-10.9832
▁benefactor	-10.9832
▁community	-10.9832
▁frank	-10.9832
▁imitate	-10.9832
▁marvellous	-10.9832
▁perfume	-10.9832
▁bloom	-10.9832
▁Wellington	-10.9832
▁tragic	-10.9832
▁seizing	-10.9833
▁XIV	-10.9833
▁rattle	-10.9834
▁score	-10.9835
▁mantle	-10.9836
▁nest	-10.9846
▁suspended	-10.9851
▁tossed	-10.9854
pound	-10.9855
▁confirmed	-10.9858
▁offended	-10.9865
▁swallowed	-10.9872
had	-10.9881
▁admired	-10.9882
▁generations	-10.9885
nov	-10.9885
▁vaguely	-10.9889
wise	-10.9899
▁shiver	-10.9922
▁reveal	-10.9923
▁formal	-10.993
▁issue	-10.9933
▁detach	-10.9957
▁Grantaire	-10.9964
▁Leviathan	-10.9964
▁Pallas	-10.9964
▁cheese	-10.9964
▁elephant	-10.9964
▁probability	-10.9964
▁research	-10.9964
▁trifle	-10.9964
▁Therefore	-10.9964
▁sweat	-10.9964
▁renown	-10.9964
▁suppress	-10.9964
▁lawyer	-10.9965
▁sunset	-10.9965
▁local	-10.9965
▁saint	-10.9965
▁careless	-10.997
▁rail	-10.9971
▁happening	-10.9971
▁thicket	-10.9976
▁lid	-10.9979
▁Bl	-10.998
▁sage	-10.9995
▁hare	-11.0005
▁barb	-11.0008
▁Guard	-11.0015
▁suspected	-11.0017
▁screamed	-11.0027
▁crow	-11.0028
▁mourn	-11.0032
▁expenses	-11.0032
--------------	-11.0033
▁granted	-11.0037
known	-11.0037
▁hated	-11.0041
▁lap	-11.0047
return	-11.005
▁closer	-11.0051
▁punish	-11.0054
▁swallow	-11.0057
▁cards	-11.0067
▁retreated	-11.0078
▁conducted	-11.0083
fall	-11.0088
▁sailing	-11.0089
▁Bildad	-11.0097
▁appetite	-11.0097
▁centuries	-11.0097
▁contemplate	-11.0097
▁elapsed	-11.0097
▁elegant	-11.0097
▁pleasing	-11.0097
▁skeleton	-11.0097
▁slender	-11.0097
▁yourselves	-11.0097
▁fourteen	-11.0097
▁memories	-11.0097
▁Death	-11.0097
▁mischief	-11.0097
▁available	-11.01
▁defective	-11.01
▁foul	-11.0101
▁XII	-11.0102
▁drunken	-11.0104
▁Book	-11.0105
▁lip	-11.0106
▁fitted	-11.0107
▁deaf	-11.0108
▁exile	-11.0109
▁Han	-11.0113
▁Col	-11.0113
▁Four	-11.0117
▁apartments	-11.0129
▁exchanged	-11.0137
▁palm	-11.0141
ière	-11.0147
▁glasses	-11.0147
▁push	-11.015
▁bitterly	-11.0159
▁reasoning	-11.0186
▁condemn	-11.0192
▁introduce	-11.0196
minded	-11.0197
▁lawn	-11.0198
▁obtaining	-11.0213
▁drug	-11.0214
▁develop	-11.0227
▁thanked	-11.023
▁jewel	-11.0232
▁register	-11.0232
▁province	-11.0232
▁rescue	-11.0232
▁stroll	-11.0232
▁Adeimantus	-11.0232
▁Empire	-11.0232
▁downstairs	-11.0232
▁insurrection	-11.0232
▁involve	-11.0232
▁nephew	-11.0232
▁observing	-11.0232
▁pluck	-11.0232
▁tranquillity	-11.0232
▁tumble	-11.0232
▁pilot	-11.0232
▁flaming	-11.0232
▁swimming	-11.0232
▁tread	-11.0233
▁novel	-11.0233
▁allusion	-11.0233
▁jacket	-11.0233
▁stake	-11.0234
▁daily	-11.0234
▁Pip	-11.0234
▁stopping	-11.0235
▁Up	-11.0237
▁upset	-11.0238
▁Pont	-11.0241
▁lean	-11.0242
▁planks	-11.0242
▁countries	-11.0243
▁belt	-11.0244
▁WITH	-11.0251
▁roused	-11.0253
▁chains	-11.0255
▁classes	-11.0257
▁tiny	-11.0258
▁col	-11.0259
▁frowning	-11.0259
▁Port	-11.026
▁income	-11.0269
▁Mon	-11.0277
▁Ni	-11.0277
▁map	-11.0287
▁gallop	-11.0287
vin	-11.0291
▁missed	-11.0298
▁doubtful	-11.0303
▁Indeed	-11.0307
ville	-11.0313
▁hurrying	-11.032
25	-11.0321
Give	-11.0328
▁renew	-11.0329
Some	-11.033
▁wink	-11.033
igh	-11.033
Me	-11.0332
▁emerge	-11.0333
glass	-11.0334
mast	-11.0341
▁unconscious	-11.0347
▁range	-11.0347
▁Bossuet	-11.0369
▁Hawkins	-11.0369
▁Jordan	-11.0369
▁Montfermeil	-11.0369
▁Netherfield	-11.0369
▁imitation	-11.0369
▁necessarily	-11.0369
▁vulgar	-11.0369
▁Venus	-11.0369
▁Simon	-11.0369
▁gulf	-11.0369
▁incapable	-11.0369
▁closing	-11.037
▁payments	-11.0372
▁200	-11.0373
▁neat	-11.0376
▁opera	-11.0376
▁difficulties	-11.0377
▁washed	-11.038
óv	-11.0381
▁injured	-11.0383
▁enjoyment	-11.0383
▁incessantly	-11.0384
▁certainty	-11.0386
rou	-11.0389
▁wandering	-11.0401
uce	-11.0406
▁survive	-11.041
▁gathering	-11.0415
Get	-11.0423
▁reminded	-11.0424
▁belly	-11.0424
Madame	-11.0454
▁leaders	-11.047
▁summon	-11.0471
▁boldly	-11.0472
▁realize	-11.0475
▁Hills	-11.0481
TO	-11.0483
▁jealous	-11.0495
▁stag	-11.0496
▁fan	-11.0496
▁corrupt	-11.0501
▁chap	-11.0502
itting	-11.0508
▁WHICH	-11.0508
▁application	-11.0508
▁arriving	-11.0508
▁ascertain	-11.0508
▁consolation	-11.0508
▁democracy	-11.0508
▁flourish	-11.0508
▁obedience	-11.0508
▁wondrous	-11.0508
▁darling	-11.0508
▁combined	-11.0508
▁goose	-11.0508
▁meditate	-11.0508
▁Peleg	-11.0509
▁foremost	-11.0509
▁tiger	-11.051
▁icon	-11.0512
▁politeness	-11.0512
▁confer	-11.0513
▁patch	-11.0513
▁Other	-11.0514
▁detachment	-11.0515
▁x	-11.0517
▁critical	-11.052
▁assent	-11.0525
▁temples	-11.0528
maker	-11.0528
▁heroic	-11.053
▁ringing	-11.053
▁relieved	-11.053
▁screw	-11.0531
▁Head	-11.0537
▁lucky	-11.0537
▁heels	-11.0542
▁surrounding	-11.0543
▁awakened	-11.0546
▁issued	-11.0547
burg	-11.0553
▁unexpectedly	-11.0556
▁elbows	-11.0558
▁Juliet	-11.0561
▁charged	-11.0561
▁spectacle	-11.0573
▁male	-11.0576
14	-11.0582
REC	-11.0594
tail	-11.0597
▁alter	-11.06
▁prop	-11.0601
20	-11.0601
▁enjoyed	-11.0606
▁scatter	-11.0609
▁fling	-11.062
▁nigh	-11.0623
▁waist	-11.0649
▁Capulet	-11.0649
▁achieve	-11.0649
▁discipline	-11.0649
▁harbour	-11.0649
▁independent	-11.0649
▁scratch	-11.0649
▁tremendous	-11.0649
▁Kitty	-11.0649
▁combination	-11.0649
▁lodging	-11.0649
▁smart	-11.0649
▁regain	-11.0649
▁glide	-11.0649
▁roast	-11.0649
▁suspicious	-11.0649
▁rubles	-11.065
▁funny	-11.065
▁fiend	-11.065
▁denied	-11.065
▁Ye	-11.065
▁detest	-11.0651
▁gallant	-11.0651
▁feverish	-11.0652
▁invest	-11.0653
▁reins	-11.0655
▁theatre	-11.0655
▁startled	-11.0656
▁gravely	-11.0658
▁lend	-11.0658
▁selfish	-11.0659
▁mill	-11.0662
▁XIII	-11.0667
▁vine	-11.0667
▁perfection	-11.0671
▁rust	-11.0672
▁attributed	-11.0678
▁adopted	-11.0678
▁reserved	-11.0685
▁forbid	-11.0686
▁betrayed	-11.0689
▁Sea	-11.0702
▁winding	-11.0717
▁perished	-11.0717
▁expense	-11.0718
▁attained	-11.0718
▁attract	-11.0734
▁Holy	-11.0742
▁complying	-11.0744
ended	-11.0745
natured	-11.0747
▁correspond	-11.0748
range	-11.0748
LI	-11.0749
▁stoop	-11.075
▁glitter	-11.075
▁180	-11.0751
▁betray	-11.0751
▁reserve	-11.0756
▁Love	-11.0761
▁uttering	-11.0763
▁mid	-11.0773
▁dame	-11.0773
ée	-11.0775
▁unite	-11.0776
▁XV	-11.0777
▁excess	-11.079
▁avail	-11.0791
▁deliberate	-11.0792
▁inflict	-11.0792
▁skull	-11.0792
▁spectator	-11.0792
▁Eumaeus	-11.0792
▁Nesvítski	-11.0792
▁calculation	-11.0792
▁monument	-11.0792
▁ruffian	-11.0792
▁satisfy	-11.0792
▁withdrew	-11.0792
▁Signor	-11.0792
▁dismay	-11.0792
▁pupil	-11.0792
Pharao	-11.0792
▁enlighten	-11.0792
▁Henry	-11.0792
▁festival	-11.0794
▁wrist	-11.0794
▁cough	-11.0796
▁assistant	-11.0796
▁American	-11.0799
▁trot	-11.08
▁standard	-11.0801
▁jaws	-11.0802
▁arrangements	-11.0803
▁aroused	-11.0808
▁senseless	-11.0811
▁exposed	-11.0812
▁whalemen	-11.0816
▁grieved	-11.0817
▁threatening	-11.0817
ky	-11.0819
▁sadness	-11.0824
▁Nay	-11.0843
▁27	-11.0848
▁extend	-11.0854
▁solemnly	-11.0858
thou	-11.0864
▁delivered	-11.0867
▁landed	-11.0874
mother	-11.0884
stones	-11.0894
▁print	-11.0897
▁chanced	-11.0903
▁cure	-11.0922
gate	-11.0922
▁create	-11.0931
▁improve	-11.0931
▁whereon	-11.0932
▁commence	-11.0935
▁affirm	-11.0937
▁Should	-11.0937
▁Tydides	-11.0937
▁cemetery	-11.0937
▁derivative	-11.0937
▁energetic	-11.0937
▁happily	-11.0937
▁perspiration	-11.0937
▁prejudice	-11.0937
▁swung	-11.0937
▁unnecessary	-11.0937
▁virgin	-11.0937
▁imperial	-11.0937
▁stove	-11.0937
▁placing	-11.0937
▁overthrow	-11.0937
▁prophet	-11.0937
▁slipper	-11.0938
▁sphere	-11.0939
▁Arab	-11.0939
▁_“	-11.0939
▁upwards	-11.094
▁chapel	-11.094
▁brick	-11.094
▁rib	-11.0941
▁consequently	-11.0942
▁prim	-11.0943
▁gamin	-11.0944
▁Ten	-11.0945
▁protection	-11.0946
▁dusk	-11.0946
▁diary	-11.0946
▁cub	-11.0948
▁warmth	-11.096
▁Gu	-11.0963
over	-11.0967
15	-11.0975
▁earnestly	-11.0977
asse	-11.0977
▁punished	-11.0981
▁restless	-11.0982
▁acknowledged	-11.0988
Or	-11.0999
off	-11.1002
▁Say	-11.1008
neas	-11.1011
▁leaped	-11.1017
▁waved	-11.1023
Count	-11.103
▁landing	-11.1033
▁parent	-11.1033
▁bleed	-11.1043
11	-11.1064
May	-11.1064
▁contradict	-11.1071
▁AGREE	-11.1084
▁Behind	-11.1084
▁Beneath	-11.1084
▁Between	-11.1084
▁Bilíbin	-11.1084
▁Kurágin	-11.1084
▁Véra	-11.1084
▁ambition	-11.1084
▁betrothed	-11.1084
▁bucket	-11.1084
▁coffee	-11.1084
▁escort	-11.1084
▁hovel	-11.1084
▁insurgent	-11.1084
▁leisure	-11.1084
▁slew	-11.1084
▁huntsman	-11.1084
▁compass	-11.1084
▁vital	-11.1084
▁confound	-11.1085
▁neighbourhood	-11.1085
▁royalties	-11.1085
▁glare	-11.1085
LIMI	-11.1085
▁cattle	-11.1085
▁performance	-11.1086
▁chatter	-11.1087
▁saving	-11.1087
▁treatment	-11.1089
▁Spartan	-11.109
27	-11.109
▁Think	-11.1098
▁fed	-11.1101
▁respectfully	-11.1107
▁que	-11.1112
▁witch	-11.1115
any	-11.1119
▁opposed	-11.1119
▁clasped	-11.1119
▁altered	-11.1127
▁mourning	-11.1131
tric	-11.1131
▁Last	-11.1138
▁climbed	-11.114
▁HIS	-11.1155
Al	-11.1163
▁limb	-11.1167
▁shoe	-11.1168
mount	-11.1176
Which	-11.1179
count	-11.1184
▁build	-11.1192
▁suffice	-11.1197
▁threat	-11.1219
▁appearing	-11.123
Tu	-11.123
bro	-11.123
▁nu	-11.1233
▁Presently	-11.1233
▁cudgel	-11.1233
▁exempt	-11.1233
▁fountain	-11.1233
▁livid	-11.1233
▁opponent	-11.1233
▁prudent	-11.1233
▁symptom	-11.1233
▁farewell	-11.1233
▁opposition	-11.1233
▁recognise	-11.1233
▁Life	-11.1233
▁vanity	-11.1233
▁mould	-11.1233
▁entity	-11.1234
▁solve	-11.1234
▁cupboard	-11.1234
axe	-11.1234
▁Turn	-11.1234
▁wail	-11.1237
digger	-11.1238
▁fin	-11.124
Speak	-11.1241
humour	-11.1247
▁Monseigneur	-11.1247
▁procession	-11.1248
▁supported	-11.125
▁amidst	-11.1254
boy	-11.1256
▁vile	-11.1257
▁threatened	-11.1259
▁doorway	-11.1264
mbr	-11.1264
▁CO	-11.1269
bit	-11.1281
▁rarely	-11.1282
▁persuaded	-11.1283
smith	-11.1293
▁conveyed	-11.1294
▁nut	-11.1311
▁watery	-11.1318
▁howling	-11.1318
eyed	-11.1328
▁strengthen	-11.1329
▁sharply	-11.1335
▁mute	-11.1335
▁invent	-11.1337
▁flo	-11.1339
▁neglect	-11.1344
▁resolute	-11.1361
▁precise	-11.1361
▁avoided	-11.1367
▁scarce	-11.1367
▁Ben	-11.137
10	-11.1371
▁appreciat	-11.1385
incomprehensible	-11.1385
▁Achaeans	-11.1385
▁DAMAGE	-11.1385
▁Luigi	-11.1385
▁Pastrini	-11.1385
▁bewildered	-11.1385
▁exquisite	-11.1385
▁redistribut	-11.1385
▁review	-11.1385
▁shroud	-11.1385
▁sunshine	-11.1385
▁surrender	-11.1385
▁tumultuous	-11.1385
▁venerable	-11.1385
▁worship	-11.1385
Impossible	-11.1385
▁Phaeacian	-11.1385
▁reduced	-11.1385
▁establishment	-11.1385
▁banquet	-11.1385
▁lonely	-11.1385
▁ardent	-11.1385
▁riot	-11.1385
▁torrent	-11.1385
▁contend	-11.1385
▁deemed	-11.1385
▁sprung	-11.1385
▁disagreeable	-11.1386
▁sanct	-11.1387
▁suck	-11.1389
▁token	-11.1389
▁pink	-11.1391
▁repent	-11.1393
▁egg	-11.1394
▁Something	-11.1402
Stop	-11.1403
▁footman	-11.1408
▁disclaimer	-11.1412
▁Upon	-11.1413
AY	-11.1413
▁timidly	-11.1418
▁pushing	-11.1432
▁donate	-11.1464
▁aye	-11.1471
▁generation	-11.1476
▁recommend	-11.1498
▁Thank	-11.1498
▁spit	-11.1499
▁oppose	-11.1502
▁fulfil	-11.151
▁recent	-11.1515
▁Dol	-11.1526
▁staying	-11.1528
▁Arm	-11.1531
▁Benedetto	-11.1539
▁audience	-11.1539
▁bayonet	-11.1539
▁drift	-11.1539
▁eyebrows	-11.1539
▁obstacle	-11.1539
▁publish	-11.1539
▁bundle	-11.1539
▁gallery	-11.1539
RIAR	-11.1539
▁copied	-11.1539
▁cherish	-11.1539
▁silly	-11.1539
▁dragging	-11.154
▁spiritual	-11.154
▁violat	-11.154
gone	-11.154
▁gap	-11.1541
(3)	-11.1541
▁impart	-11.1542
▁waving	-11.1543
▁travelled	-11.1543
▁brand	-11.1544
▁Lake	-11.1545
▁bushes	-11.1547
▁rapidity	-11.1548
hall	-11.155
▁frontier	-11.1553
▁Out	-11.1553
arrow	-11.157
▁wandered	-11.1573
De	-11.159
▁retained	-11.1596
▁burnt	-11.1611
▁Toll	-11.1626
▁bowing	-11.1632
▁edition	-11.1635
father	-11.1641
about	-11.1644
Shall	-11.1645
▁Na	-11.1664
under	-11.1673
ax	-11.1674
▁retreating	-11.1677
▁Alcinous	-11.1695
▁BENVOLIO	-11.1695
▁amazed	-11.1695
▁apprehension	-11.1695
▁dazzling	-11.1695
▁describing	-11.1695
▁faculty	-11.1695
▁ferocious	-11.1695
▁niece	-11.1695
▁offspring	-11.1695
▁supplied	-11.1695
▁(2)	-11.1695
▁blast	-11.1695
▁pallor	-11.1695
haired	-11.1695
Friend	-11.1695
▁Place	-11.1696
▁panic	-11.1696
▁cordial	-11.1696
▁disappointment	-11.1698
Only	-11.1699
▁herald	-11.1701
▁suitable	-11.1703
▁hover	-11.1703
▁repress	-11.1704
▁invade	-11.1704
▁Doctor	-11.1712
bone	-11.1712
▁sting	-11.1717
▁chat	-11.1721
▁attorney	-11.1721
MENT	-11.1724
▁ripe	-11.1726
▁amused	-11.1728
▁tormented	-11.1734
mini	-11.174
▁entertained	-11.1749
CK	-11.1758
Li	-11.1765
▁Dan	-11.1769
ANT	-11.1777
road	-11.1783
▁bandage	-11.1791
door	-11.1795
▁awaken	-11.1798
white	-11.1799
▁ju	-11.1801
▁Cla	-11.1804
▁murdered	-11.1808
▁drown	-11.1813
▁approve	-11.1817
▁intent	-11.1824
▁bat	-11.1848
▁cautious	-11.1854
▁Faubourg	-11.1854
▁Karatáev	-11.1854
▁MERCUTIO	-11.1854
▁THAT	-11.1854
▁atmosphere	-11.1854
▁disgust	-11.1854
▁paradise	-11.1854
▁surprising	-11.1854
▁thumb	-11.1854
▁afflict	-11.1854
▁essence	-11.1854
▁whatsoever	-11.1854
▁tavern	-11.1854
▁shaft	-11.1854
▁Edward	-11.1854
▁crumb	-11.1854
▁augment	-11.1854
▁grove	-11.1854
▁azure	-11.1854
▁stall	-11.1854
▁console	-11.1854
▁pretext	-11.1854
▁1812	-11.1854
▁Bald	-11.1854
▁falsehood	-11.1855
▁brute	-11.1855
▁amusing	-11.1855
▁yielded	-11.1856
▁oxen	-11.1856
▁resistance	-11.1857
fulness	-11.186
▁bury	-11.186
▁NO	-11.1866
▁planet	-11.1868
▁extract	-11.187
▁dew	-11.1885
▁raft	-11.1886
▁blushed	-11.1886
▁Bill	-11.1888
▁passers	-11.1894
▁lib	-11.1898
placement	-11.1902
▁corps	-11.1904
▁quivering	-11.1923
▁center	-11.1926
▁paced	-11.1936
▁Par	-11.1937
▁respected	-11.1943
▁hay	-11.1949
humor	-11.1957
▁procure	-11.1975
▁dreamed	-11.1978
▁envelope	-11.1979
▁torment	-11.1983
▁25	-11.1987
▁cent	-11.199
▁respectful	-11.2003
▁uncommon	-11.2015
▁Teresa	-11.2015
▁Tybalt	-11.2015
▁Vulcan	-11.2015
▁cultivat	-11.2015
▁dazzled	-11.2015
▁embroider	-11.2015
▁innumerable	-11.2015
▁retorted	-11.2015
▁struggling	-11.2015
▁realise	-11.2015
▁gossip	-11.2015
▁captive	-11.2015
▁Wicked	-11.2015
▁keel	-11.2015
▁domain	-11.2015
uvre	-11.2015
Exactly	-11.2015
▁bishop	-11.2015
▁jeweller	-11.2016
▁referred	-11.2016
▁1815	-11.2016
shka	-11.2016
▁excessive	-11.2017
▁Night	-11.2018
▁Under	-11.2018
▁daybreak	-11.202
▁moist	-11.2024
gin	-11.203
▁career	-11.2033
▁inches	-11.2033
▁unconsciously	-11.2043
▁miser	-11.2048
▁seamen	-11.2049
▁raging	-11.2051
▁cursed	-11.2052
▁invented	-11.2058
▁conceived	-11.2061
▁lowering	-11.2069
▁None	-11.207
▁cage	-11.2074
▁wan	-11.2079
▁lifting	-11.2101
terior	-11.2107
nothing	-11.2125
ique	-11.2128
pike	-11.213
▁Art	-11.2131
▁groaning	-11.2141
▁weigh	-11.2144
▁shortly	-11.2158
dded	-11.217
Dead	-11.2173
▁cartridge	-11.2179
Copyright	-11.2179
▁Aristotle	-11.2179
▁Emerald	-11.2179
▁Olympus	-11.2179
▁Turtle	-11.2179
▁apparition	-11.2179
▁biscuit	-11.2179
▁desirous	-11.2179
▁fathom	-11.2179
▁impatience	-11.2179
▁introduction	-11.2179
▁perceiving	-11.2179
▁plunder	-11.2179
▁swineherd	-11.2179
▁thrice	-11.2179
▁tobacco	-11.2179
▁vanquish	-11.2179
▁Fierce	-11.2179
▁serene	-11.2179
▁unseen	-11.2179
▁marquis	-11.2179
▁shy	-11.2181
▁hoping	-11.2181
▁preferred	-11.2182
▁ii	-11.2191
▁overtake	-11.2191
▁embarrassed	-11.2195
▁apt	-11.2195
▁respectable	-11.2195
▁wretchedness	-11.2196
▁puzzled	-11.2197
▁dug	-11.2216
▁moan	-11.2218
▁searching	-11.2221
▁Five	-11.2225
duct	-11.2226
▁bulwarks	-11.2228
▁dined	-11.2238
▁surround	-11.2263
▁largest	-11.2274
▁coldly	-11.2278
▁whiteness	-11.2278
▁maintained	-11.2279
▁flashed	-11.2282
*	-11.2282
▁sternly	-11.2285
▁stationed	-11.2306
▁penetrate	-11.2309
▁Does	-11.2324
▁bush	-11.2344
▁bite	-11.2345
▁Livesey	-11.2345
▁Saturday	-11.2345
▁faculties	-11.2345
▁illustrious	-11.2345
▁lieutenant	-11.2345
▁prodigious	-11.2345
▁reconcil	-11.2345
▁thieves	-11.2345
▁timber	-11.2345
▁wrinkled	-11.2345
▁clung	-11.2345
▁elect	-11.2345
▁alternate	-11.2345
▁liberal	-11.2345
▁presume	-11.2345
▁shun	-11.2346
▁mariner	-11.2346
▁Marquis	-11.2346
▁detect	-11.2346
▁thigh	-11.2346
▁grandmother	-11.2346
▁pounds	-11.2347
▁petty	-11.2347
▁Tsar	-11.2348
▁sparkling	-11.2348
▁jury	-11.2348
▁carries	-11.2348
▁customary	-11.2349
▁expressive	-11.2353
▁chart	-11.2354
▁forgetting	-11.2355
▁educated	-11.2362
▁vest	-11.2364
▁twisted	-11.2374
▁Ju	-11.2375
▁hinder	-11.2379
▁neglected	-11.239
▁sup	-11.2394
▁clo	-11.2399
▁union	-11.241
Dr	-11.2426
▁workman	-11.2431
▁Cape	-11.244
▁handful	-11.2446
▁respecting	-11.2449
worth	-11.2461
▁clad	-11.2461
▁Thr	-11.2465
istic	-11.2465
▁impress	-11.2465
▁clasp	-11.2479
▁invite	-11.248
born	-11.2481
llo	-11.2483
▁ban	-11.2486
mark	-11.2493
ject	-11.2509
▁urge	-11.2509
▁hearth	-11.2512
establish	-11.2515
▁Clerval	-11.2515
▁Except	-11.2515
▁complicated	-11.2515
▁gravity	-11.2515
▁impetuous	-11.2515
▁refusal	-11.2515
▁resemblance	-11.2515
▁symbol	-11.2515
▁Luxembourg	-11.2515
▁Nurse	-11.2515
▁maxim	-11.2515
▁brutal	-11.2515
▁copper	-11.2515
▁ambush	-11.2515
▁lunch	-11.2515
▁frantic	-11.2515
position	-11.2517
▁stirred	-11.2517
▁void	-11.2519
!...”	-11.2523
ization	-11.2526
▁duck	-11.2527
▁stammered	-11.2528
▁Mock	-11.2538
▁growth	-11.2539
▁converted	-11.255
▁penetrated	-11.2552
▁joyfully	-11.2553
18	-11.2561
mission	-11.2574
▁endured	-11.2577
▁jar	-11.2584
▁wondered	-11.2584
▁bathed	-11.2593
▁termed	-11.2595
▁rob	-11.2596
▁planted	-11.2607
▁glowing	-11.2607
▁eh	-11.2612
▁disc	-11.2612
woman	-11.2636
rise	-11.2646
▁curse	-11.2669
▁covering	-11.2672
▁beaut	-11.2675
▁gen	-11.2675
▁praying	-11.2681
UL	-11.2682
▁frighten	-11.2684
▁differ	-11.2684
▁ven	-11.2687
stricken	-11.2687
▁Busoni	-11.2687
▁Meantime	-11.2687
▁delicacy	-11.2687
▁despatch	-11.2687
▁indignant	-11.2687
▁sketch	-11.2687
Hurrah	-11.2687
▁scaffold	-11.2687
▁globe	-11.2687
▁vexed	-11.2687
▁expand	-11.2687
▁marvel	-11.2687
Excuse	-11.2687
▁XXX	-11.2687
▁animation	-11.2687
▁Murat	-11.2687
▁spider	-11.2687
▁screen	-11.2688
▁adorn	-11.2688
▁ditch	-11.2688
▁garments	-11.2688
▁saber	-11.2691
▁readiness	-11.2693
▁Everyone	-11.2693
▁hue	-11.2694
▁sunlight	-11.2695
▁cash	-11.2696
▁improvement	-11.2696
▁groom	-11.2697
▁superiority	-11.27
▁contradiction	-11.2703
▁Use	-11.2703
▁employment	-11.2706
▁sable	-11.2714
▁impatiently	-11.2721
▁desk	-11.273
▁hopeless	-11.273
▁pond	-11.2731
▁drowned	-11.2732
▁painter	-11.2741
▁stain	-11.2748
▁weaker	-11.2753
▁rap	-11.276
▁metal	-11.2763
▁dome	-11.2768
thus	-11.2773
▁sincere	-11.2784
covered	-11.2803
▁whispering	-11.2803
▁DE	-11.2807
three	-11.2809
Jean	-11.2809
▁boar	-11.2815
▁hasty	-11.2819
▁thereby	-11.282
▁attribute	-11.2827
▁flowed	-11.2832
▁inspect	-11.2857
▁madam	-11.2861
IGHT	-11.2861
▁Meryton	-11.2863
▁Vienna	-11.2863
▁artificial	-11.2863
▁bargain	-11.2863
▁enclosure	-11.2863
▁genuine	-11.2863
▁militia	-11.2863
▁miracle	-11.2863
▁vicinity	-11.2863
▁whistling	-11.2863
▁Brujon	-11.2863
▁Charles	-11.2863
▁provoke	-11.2863
▁Church	-11.2863
▁grandeur	-11.2863
▁louis	-11.2863
▁prioress	-11.2863
▁contest	-11.2863
▁rubbed	-11.2863
▁Although	-11.2864
▁dropping	-11.2864
▁hook	-11.2865
▁expressing	-11.2865
▁temperance	-11.2867
hill	-11.2868
▁marched	-11.287
▁Maire	-11.2877
▁prose	-11.2877
▁pious	-11.2884
does	-11.2887
X	-11.2894
▁Frenchmen	-11.2898
▁Please	-11.2899
▁qui	-11.2899
RES	-11.2901
▁enveloped	-11.2902
▁lieu	-11.2904
▁demon	-11.2905
▁bravest	-11.2909
▁Em	-11.291
▁spar	-11.2913
▁Pray	-11.292
▁nowhere	-11.2924
▁guarded	-11.2929
▁tub	-11.2939
path	-11.2946
▁float	-11.2962
▁Thetis	-11.2968
▁reigned	-11.2969
field	-11.2987
Prince	-11.2987
▁Beau	-11.2995
▁citizen	-11.3009
▁tasted	-11.3012
▁catching	-11.3013
30	-11.3017
▁adding	-11.3023
▁tie	-11.3025
▁outward	-11.3027
▁LAWRENCE	-11.3041
▁Tholomyès	-11.3041
▁Winnie	-11.3041
▁appointment	-11.3041
▁baggage	-11.3041
▁believing	-11.3041
▁contemptuous	-11.3041
▁decisive	-11.3041
▁drooping	-11.3041
▁empire	-11.3041
▁expedition	-11.3041
▁fugitive	-11.3041
▁inclination	-11.3041
▁inevitable	-11.3041
▁irregular	-11.3041
▁irresistible	-11.3041
▁meditation	-11.3041
▁practise	-11.3041
▁rhythm	-11.3041
▁scoundrel	-11.3041
▁universe	-11.3041
▁steadily	-11.3041
▁Dutch	-11.3041
▁expire	-11.3042
▁serving	-11.3042
▁alliance	-11.3042
Brother	-11.3042
▁shutters	-11.3042
▁hounds	-11.3042
▁transferred	-11.3042
▁railway	-11.3043
▁stockings	-11.3043
Plain	-11.3044
▁Mason	-11.3045
▁verge	-11.3045
▁frock	-11.3046
▁amusement	-11.3047
▁entry	-11.3052
▁marching	-11.3055
▁mustache	-11.3058
▁warlike	-11.3058
▁witnesses	-11.3063
▁released	-11.3065
These	-11.3067
▁sleepy	-11.3071
▁frowned	-11.3076
▁approved	-11.3082
▁floated	-11.3085
▁protector	-11.3085
q	-11.3097
▁prevailed	-11.3098
▁smallest	-11.3102
▁healthy	-11.3106
▁dusty	-11.3113
▁lace	-11.313
after	-11.3133
▁paint	-11.3134
▁fasten	-11.3136
▁sq	-11.3151
▁rub	-11.3165
temper	-11.3169
Pray	-11.3172
5,000	-11.3177
Un	-11.3186
▁disappoint	-11.3219
▁amuse	-11.3222
Picpus	-11.3223
▁Gryphon	-11.3223
▁Jupiter	-11.3223
▁Pemberley	-11.3223
▁adjoining	-11.3223
▁assault	-11.3223
▁journal	-11.3223
▁livres	-11.3223
▁serpent	-11.3223
▁thirteen	-11.3223
▁clue	-11.3223
▁anteroom	-11.3223
▁relating	-11.3223
▁Could	-11.3223
▁interfere	-11.3223
▁Flint	-11.3223
▁Horse	-11.3223
▁sleigh	-11.3223
▁traitor	-11.3223
▁Hatter	-11.3223
▁Day	-11.3223
▁extinguished	-11.3223
▁wiped	-11.3224
▁embarrassment	-11.3224
chaise	-11.3224
▁midday	-11.3224
▁horseback	-11.3224
33	-11.3225
▁House	-11.3226
▁speedily	-11.3226
▁pressure	-11.3226
▁brace	-11.3229
▁cove	-11.3234
▁responded	-11.3241
▁willingly	-11.3241
▁honorable	-11.3246
▁preceded	-11.3248
▁Tar	-11.3249
▁Aunt	-11.325
▁thirsty	-11.3251
▁Whatever	-11.3252
▁seventh	-11.3252
▁Dron	-11.3254
▁possesses	-11.3256
▁stamped	-11.3262
▁sixth	-11.3267
▁Hold	-11.3268
▁extending	-11.3276
▁renewed	-11.3278
bid	-11.3279
▁purchased	-11.3286
▁afforded	-11.331
▁cracked	-11.3311
▁wander	-11.3327
▁struggled	-11.333
cloth	-11.3354
twenty	-11.3354
since	-11.3358
point	-11.3358
bon	-11.3358
▁announce	-11.3368
▁hurl	-11.3368
▁rejoice	-11.3372
▁derive	-11.3372
▁accordingly	-11.3374
▁provision	-11.3378
▁polite	-11.338
▁continual	-11.3385
▁melt	-11.3394
▁stole	-11.3397
▁instruct	-11.3404
▁swam	-11.3404
eh	-11.3405
▁inherit	-11.3407
▁oligarch	-11.3408
▁Catalan	-11.3408
▁Minister	-11.3408
▁Tashtego	-11.3408
▁anticipate	-11.3408
▁blazing	-11.3408
▁ceremony	-11.3408
▁displeased	-11.3408
▁grotto	-11.3408
▁institution	-11.3408
▁obstinate	-11.3408
▁perpetual	-11.3408
▁reassure	-11.3408
▁strait	-11.3408
▁strife	-11.3408
▁subsequent	-11.3408
▁terribly	-11.3408
▁creep	-11.3408
▁disaster	-11.3408
▁rigid	-11.3408
ological	-11.3408
agged	-11.3408
▁plead	-11.3408
▁Basque	-11.3408
▁knight	-11.3408
▁launch	-11.3408
▁uproar	-11.3408
▁mixture	-11.3409
▁pacing	-11.3409
▁bald	-11.3409
▁indicating	-11.3409
▁forbidden	-11.3409
▁studies	-11.3409
▁Spain	-11.341
▁stirring	-11.3411
▁hospitality	-11.3414
▁simultaneously	-11.3415
▁civility	-11.3417
▁odor	-11.3422
▁elevated	-11.3424
▁polished	-11.3427
▁confession	-11.343
▁robe	-11.3439
▁inhabited	-11.3442
▁carelessly	-11.3442
rope	-11.3444
▁calmness	-11.3447
Was	-11.3454
▁weighed	-11.3455
▁wage	-11.3464
▁selected	-11.347
ison	-11.3478
▁pretended	-11.3486
colored	-11.349
▁warned	-11.3495
▁Duc	-11.3502
▁code	-11.3504
▁lacking	-11.3507
▁personally	-11.3507
Would	-11.3542
Thou	-11.3543
After	-11.3543
Ye	-11.3553
▁fairy	-11.3555
▁measured	-11.3556
▁invalid	-11.3558
▁excite	-11.3558
▁rag	-11.3565
▁temple	-11.3571
▁league	-11.3571
▁offend	-11.3586
▁import	-11.3594
▁Turk	-11.3595
▁Royal	-11.3596
Jacques	-11.3597
lysées	-11.3597
▁April	-11.3597
▁Barclay	-11.3597
▁Duchess	-11.3597
▁Yanina	-11.3597
▁blouse	-11.3597
▁convenient	-11.3597
▁dagger	-11.3597
▁ecstasy	-11.3597
▁enchanted	-11.3597
▁fancies	-11.3597
▁knoll	-11.3597
▁remembrance	-11.3597
▁resembling	-11.3597
▁security	-11.3597
▁wrinkles	-11.3597
▁descent	-11.3597
▁stifle	-11.3597
▁overflow	-11.3597
▁knit	-11.3597
▁quay	-11.3597
▁gross	-11.3597
▁implore	-11.3597
▁lurk	-11.3597
▁pensive	-11.3597
Antoine	-11.3598
▁residence	-11.3598
▁rational	-11.3598
▁function	-11.3598
▁habitual	-11.3598
▁prowl	-11.3598
▁employee	-11.3599
▁victorious	-11.3599
Le	-11.36
▁hereafter	-11.3604
▁washing	-11.3605
▁Justine	-11.3605
▁successive	-11.3606
▁Highness	-11.3606
▁invention	-11.3607
▁semi	-11.3612
▁curve	-11.3615
these	-11.3624
▁communicated	-11.3627
▁childish	-11.3634
▁regimental	-11.364
ugged	-11.364
▁Stand	-11.3648
▁clearness	-11.3655
▁intending	-11.3661
▁discussed	-11.3663
▁tenth	-11.3665
▁jug	-11.3673
▁mystic	-11.3677
▁louder	-11.3678
▁neighboring	-11.3701
▁faster	-11.3704
iety	-11.371
▁hunted	-11.3712
▁roared	-11.372
slave	-11.3738
god	-11.3739
▁21	-11.374
▁resolve	-11.3753
▁compare	-11.3756
▁logic	-11.3759
▁attentive	-11.3766
nouncing	-11.3779
▁Philip	-11.3788
▁HISPANIOLA	-11.3789
▁Peleus	-11.3789
▁Woking	-11.3789
▁borzoi	-11.3789
▁capacity	-11.3789
▁comparative	-11.3789
▁document	-11.3789
▁ingenious	-11.3789
▁nostrils	-11.3789
▁parallel	-11.3789
▁trumpet	-11.3789
▁uncomfortable	-11.3789
▁whirlwind	-11.3789
▁Lycian	-11.3789
▁investigation	-11.3789
▁rattling	-11.3789
▁romance	-11.3789
▁shrill	-11.3789
▁telegraph	-11.3789
▁unworthy	-11.3789
▁viscount	-11.3789
▁sharing	-11.3789
▁(1)	-11.3789
▁Christmas	-11.3789
▁zeal	-11.379
▁hinges	-11.379
▁Amphi	-11.379
▁robbed	-11.379
▁consume	-11.379
▁Lucien	-11.379
attle	-11.379
▁sunrise	-11.3792
▁construction	-11.3793
▁softened	-11.3793
▁fireplace	-11.3795
▁pomp	-11.3797
▁corruption	-11.38
▁refer	-11.3802
▁speculation	-11.3802
▁brandy	-11.3806
Stay	-11.3806
▁mechanically	-11.3807
▁imposed	-11.3809
▁hearse	-11.3809
▁constructed	-11.381
▁swamp	-11.3813
▁coil	-11.3814
▁Pass	-11.3819
▁San	-11.382
▁discharged	-11.3823
liest	-11.3843
▁dresses	-11.3846
▁stooping	-11.3846
MER	-11.3847
▁executioner	-11.3847
▁swaying	-11.3853
▁plump	-11.3856
▁model	-11.3861
▁rot	-11.3878
▁complaint	-11.3882
ebook	-11.3887
coming	-11.3889
▁grip	-11.3889
stained	-11.3897
▁witnessed	-11.39
▁guided	-11.3902
16	-11.3902
Leave	-11.3923
▁tune	-11.3926
True	-11.3931
▁toilet	-11.3939
▁adopt	-11.3945
▁convert	-11.3945
EAR	-11.3968
▁exert	-11.3974
▁strand	-11.3985
LADY	-11.3985
lmighty	-11.3985
▁Antinous	-11.3985
▁Argive	-11.3985
▁Hippolyte	-11.3985
▁Kansas	-11.3985
▁Pylos	-11.3985
▁Toussaint	-11.3985
▁bronze	-11.3985
▁distrust	-11.3985
▁excellence	-11.3985
▁harvest	-11.3985
▁indignation	-11.3985
▁pattern	-11.3985
▁recognizing	-11.3985
▁subterranean	-11.3985
▁tragedy	-11.3985
▁National	-11.3985
▁York	-11.3985
▁decent	-11.3986
▁fishery	-11.3986
▁philosophical	-11.3986
▁orphan	-11.3986
▁Merion	-11.3986
▁electric	-11.3986
▁enlarg	-11.3986
▁jerk	-11.3986
▁canvas	-11.3987
▁bristl	-11.3987
▁complexion	-11.3989
Dieu	-11.399
▁production	-11.3992
▁spade	-11.3992
▁seventy	-11.3995
▁madman	-11.4
▁national	-11.4002
▁heartily	-11.4009
▁prolonged	-11.4011
▁fulfilled	-11.4025
▁offence	-11.4031
▁musician	-11.4039
▁coal	-11.4041
▁corresponding	-11.4043
▁err	-11.4056
▁dimly	-11.4057
▁enthusiastic	-11.4057
▁bay	-11.4068
▁Val	-11.4072
▁tenderly	-11.4075
▁decidedly	-11.4098
▁blush	-11.4103
▁bou	-11.4103
▁Gl	-11.4125
▁Cro	-11.4138
▁mob	-11.4155
▁abstract	-11.4169
▁28	-11.417
▁feature	-11.4172
▁arrangement	-11.4174
▁prefect	-11.4185
Paradise	-11.4185
REACH	-11.4185
Remember	-11.4185
▁Around	-11.4185
▁Auteuil	-11.4185
▁Carconte	-11.4185
▁February	-11.4185
▁Plumet	-11.4185
▁chestnut	-11.4185
▁dialogue	-11.4185
▁fantastic	-11.4185
▁literature	-11.4185
▁permanent	-11.4185
▁radiance	-11.4185
▁reluctant	-11.4185
▁restrictions	-11.4185
▁romantic	-11.4185
▁stumble	-11.4185
▁superstition	-11.4185
▁supplies	-11.4185
▁unequal	-11.4185
▁vexation	-11.4185
▁Author	-11.4185
▁client	-11.4185
▁navy	-11.4185
▁brood	-11.4185
▁billows	-11.4185
▁blot	-11.4185
▁illusion	-11.4185
▁injury	-11.4186
▁tiptoe	-11.4186
hazard	-11.4186
▁wrap	-11.4186
▁limp	-11.4186
▁surpass	-11.4186
▁ordain	-11.4186
▁stature	-11.4186
▁trod	-11.4186
▁rogue	-11.4187
ULL	-11.4187
▁prick	-11.4187
▁begging	-11.4188
key	-11.419
▁failure	-11.4191
▁favourable	-11.4193
▁curate	-11.4195
▁deducti	-11.4196
▁alongside	-11.4197
▁solemnity	-11.4198
▁harmless	-11.4199
▁eagerness	-11.4199
Eury	-11.4201
▁succession	-11.4203
▁jealousy	-11.4205
▁equality	-11.4205
▁reside	-11.4208
▁irritated	-11.4212
▁boiling	-11.4223
▁plank	-11.4229
▁Shu	-11.4234
ngle	-11.4239
▁endeavoured	-11.4254
▁elderly	-11.4258
▁route	-11.4278
uver	-11.4279
---------------	-11.4282
▁Whom	-11.429
matic	-11.4331
Nay	-11.4335
▁accomplish	-11.4338
AND	-11.4343
▁attach	-11.4345
▁overwhelm	-11.4349
Sire	-11.4353
87	-11.4364
▁profess	-11.4365
▁snuff	-11.4389
Gentlemen	-11.4389
▁Bonapartist	-11.4389
▁Temple	-11.4389
▁Victor	-11.4389
▁accusation	-11.4389
▁circulat	-11.4389
▁crimson	-11.4389
▁ghastly	-11.4389
▁imperfect	-11.4389
▁liquid	-11.4389
▁petition	-11.4389
▁plaster	-11.4389
▁ponderous	-11.4389
▁promoting	-11.4389
▁prostrate	-11.4389
▁pursuing	-11.4389
▁sceptre	-11.4389
▁severity	-11.4389
▁structure	-11.4389
▁ensued	-11.439
▁glories	-11.439
▁raven	-11.439
▁twitch	-11.439
▁Hunter	-11.439
▁jolly	-11.439
▁dumb	-11.439
▁envy	-11.439
▁expend	-11.439
▁Rosings	-11.439
▁implied	-11.439
▁antique	-11.439
▁pearls	-11.439
▁relic	-11.439
▁corse	-11.439
▁wilt	-11.439
OTHER	-11.439
▁job	-11.439
▁churchyard	-11.4391
▁Royalty	-11.4391
▁dismal	-11.4391
▁proverb	-11.4391
▁Elba	-11.4391
▁signature	-11.4391
vocation	-11.4392
▁EX	-11.4392
▁thyself	-11.4397
▁concentrated	-11.4398
▁XVII	-11.44
▁paving	-11.44
▁modesty	-11.4403
▁gall	-11.4404
▁dispersed	-11.4408
▁Homeric	-11.4409
▁defined	-11.4412
▁temptation	-11.4419
▁Shih	-11.4421
▁rejoiced	-11.443
Read	-11.4433
▁hurled	-11.4435
▁melted	-11.4435
▁Odyssey	-11.4442
▁widest	-11.4443
▁seaman	-11.4447
▁infinitely	-11.4459
▁snatched	-11.4463
▁painfully	-11.4465
▁tools	-11.4467
▁tan	-11.4478
▁congratulate	-11.4504
Still	-11.4543
▁confirm	-11.4556
▁exhaust	-11.4557
▁discharge	-11.4562
▁grieve	-11.4562
fact	-11.4566
31	-11.4594
21	-11.4595
▁confide	-11.4596
▁FROM	-11.4598
▁November	-11.4598
▁President	-11.4598
▁Renfield	-11.4598
▁Théodule	-11.4598
▁blunder	-11.4598
▁charitable	-11.4598
▁denounce	-11.4598
▁determination	-11.4598
▁discourse	-11.4598
▁happier	-11.4598
▁imprison	-11.4598
▁inevitability	-11.4598
▁insignificant	-11.4598
▁luxury	-11.4598
▁plague	-11.4598
▁specified	-11.4598
▁strove	-11.4598
▁Laertes	-11.4598
▁breach	-11.4598
▁charity	-11.4598
▁fisherman	-11.4598
▁instinctively	-11.4598
▁pencil	-11.4598
▁constrain	-11.4598
▁clatter	-11.4598
▁ardour	-11.4598
▁worm	-11.4598
▁hoofs	-11.4598
▁yoke	-11.4598
▁Court	-11.4598
▁carved	-11.4598
▁peak	-11.4598
▁sideways	-11.4599
▁warrant	-11.4599
▁moderate	-11.4599
▁civilized	-11.4599
▁modest	-11.4599
▁loaf	-11.4599
▁brook	-11.4601
▁rash	-11.4602
▁duke	-11.4603
▁preach	-11.4603
▁stepping	-11.4603
▁shovel	-11.4606
thought	-11.4607
▁Make	-11.461
▁courageous	-11.461
▁devise	-11.461
▁alteration	-11.4614
▁confident	-11.4622
Merry	-11.4625
▁park	-11.4625
▁federa	-11.4627
▁dismissed	-11.4628
Does	-11.4632
▁deposited	-11.4634
▁shaken	-11.464
▁procured	-11.4645
▁sufficed	-11.4649
train	-11.4656
▁advised	-11.4661
▁clay	-11.4662
▁galloping	-11.4663
▁swayed	-11.4665
▁shivering	-11.4665
▁stuffed	-11.4668
▁snowy	-11.4679
▁dialectic	-11.4698
coloured	-11.4703
47	-11.4719
▁frown	-11.473
Odyssey	-11.4756
▁distract	-11.477
▁exclaim	-11.477
▁convince	-11.4775
▁abuse	-11.4775
say	-11.4778
▁critic	-11.4792
▁sew	-11.4798
▁America	-11.4799
▁fulfill	-11.4807
him	-11.4809
▁intellect	-11.481
▁Boguchárovo	-11.4811
▁Ichabod	-11.4811
▁Smollett	-11.4811
▁abominable	-11.4811
▁antechamber	-11.4811
▁arranging	-11.4811
▁avenue	-11.4811
▁behalf	-11.4811
▁contribute	-11.4811
▁dwelt	-11.4811
▁forecastle	-11.4811
▁indistinct	-11.4811
▁obligation	-11.4811
▁opportunities	-11.4811
▁perplexity	-11.4811
▁precipice	-11.4811
▁regulation	-11.4811
▁remedy	-11.4811
▁scruple	-11.4811
▁wrought	-11.4811
▁Pfuel	-11.4811
▁adapt	-11.4811
▁crash	-11.4811
▁easier	-11.4811
▁pilgrim	-11.4811
▁Diomed	-11.4811
▁conceit	-11.4811
▁relax	-11.4811
▁scandal	-11.4811
▁seventeen	-11.4811
▁bliss	-11.4811
▁casual	-11.4811
▁flicker	-11.4811
▁device	-11.4811
▁Gunn	-11.4811
▁Sister	-11.4811
▁lungs	-11.4811
▁ONE	-11.4811
▁idol	-11.4811
▁pear	-11.4811
▁Master	-11.4811
▁sobbing	-11.4811
enforce	-11.4812
▁loath	-11.4812
▁Amid	-11.4814
▁split	-11.4814
Keep	-11.4814
▁legend	-11.4815
▁actor	-11.4816
▁Seine	-11.4816
▁Corsican	-11.4817
!_”	-11.4818
▁ejaculated	-11.482
▁Wang	-11.4826
▁indicati	-11.4827
▁abstraction	-11.4828
▁positively	-11.4831
▁sincerely	-11.484
▁Lin	-11.4853
▁overhead	-11.4853
▁impressed	-11.4862
▁sweetness	-11.4863
▁recommended	-11.4867
▁painting	-11.4873
▁growl	-11.4887
▁stun	-11.4897
▁rend	-11.4924
▁foi	-11.4925
itz	-11.4936
Cap	-11.4974
power	-11.4976
▁Bri	-11.4981
***	-11.4985
▁mingle	-11.4993
Fish	-11.5007
▁Luc	-11.5011
▁concept	-11.502
▁501	-11.502
scribe	-11.5025
▁drama	-11.5027
▁Champmathieu	-11.5028
▁LICENSE	-11.5028
▁START	-11.5028
▁composure	-11.5028
▁conversing	-11.5028
▁dishonour	-11.5028
▁escaping	-11.5028
▁gilded	-11.5028
▁incredible	-11.5028
▁indefinite	-11.5028
▁ridicule	-11.5028
▁sepulchre	-11.5028
▁shawl	-11.5028
▁strew	-11.5028
▁swore	-11.5028
▁Africa	-11.5028
▁Felix	-11.5028
▁Westenra	-11.5028
▁architect	-11.5028
▁blossom	-11.5028
▁brigand	-11.5028
▁experiment	-11.5028
▁leviathan	-11.5028
▁merrily	-11.5028
▁patrol	-11.5028
▁revolve	-11.5028
▁liability	-11.5028
▁intrigue	-11.5028
▁Argos	-11.5028
▁internal	-11.5028
▁apron	-11.5029
▁version	-11.5029
▁soothe	-11.5029
▁fortress	-11.5029
▁seemingly	-11.5029
▁heaved	-11.503
▁confirmation	-11.5031
▁acute	-11.5032
▁notwithstanding	-11.5033
▁tyranny	-11.5033
▁Latin	-11.5034
▁passport	-11.5034
▁purity	-11.5036
▁matchless	-11.5039
▁Comte	-11.5044
LY	-11.5046
▁policeman	-11.5046
▁prominently	-11.5046
▁exertion	-11.5047
▁kid	-11.5047
▁firmness	-11.5054
▁miller	-11.5055
▁MAN	-11.5056
▁whit	-11.5059
▁reappeared	-11.5064
▁nobility	-11.5068
▁blushing	-11.5074
▁mansion	-11.5079
▁Lost	-11.5084
28	-11.51
iron	-11.51
--“	-11.5101
▁thoughtfully	-11.5102
▁finest	-11.512
▁ironical	-11.5134
▁farmer	-11.5138
erms	-11.5142
▁pinch	-11.5153
ATH	-11.5156
▁entr	-11.5164
uble	-11.5179
▁surviv	-11.5184
firm	-11.5194
Poor	-11.5196
BOOK	-11.5196
Mademoiselle	-11.5196
would	-11.5197
▁incessant	-11.5227
▁blank	-11.5248
proprietary	-11.525
▁Boulatruelle	-11.525
▁Bourbon	-11.525
▁Chanvrerie	-11.525
▁Clearly	-11.525
▁Tuesday	-11.525
▁Voltaire	-11.525
▁accurate	-11.525
▁adversary	-11.525
▁challenge	-11.525
▁cluster	-11.525
▁cravat	-11.525
▁emptied	-11.525
▁enterprise	-11.525
▁eternity	-11.525
▁luminous	-11.525
▁perception	-11.525
▁population	-11.525
▁proclaim	-11.525
▁splendor	-11.525
▁striving	-11.525
▁ultimate	-11.525
▁vapour	-11.525
▁vulture	-11.525
▁Circe	-11.525
▁choked	-11.525
▁hush	-11.525
▁gaily	-11.525
▁decay	-11.525
▁tactics	-11.525
▁muscle	-11.525
▁desolate	-11.525
▁nourish	-11.525
▁huntsmen	-11.525
NESS	-11.525
▁Jesus	-11.525
▁debate	-11.5251
▁dissatisfied	-11.5251
▁Despi	-11.5251
Hush	-11.5251
▁sparrow	-11.5252
▁spoon	-11.5254
▁Cross	-11.5256
▁attachment	-11.5256
▁attire	-11.5256
▁development	-11.5259
▁galley	-11.526
▁redoubled	-11.526
▁European	-11.5262
▁mice	-11.5262
▁Pope	-11.5262
ontact	-11.5268
▁dragon	-11.527
ASC	-11.5273
▁PG	-11.5277
▁assigned	-11.528
▁occasional	-11.5282
▁constituted	-11.5284
▁resolutely	-11.5285
Bah	-11.5299
scape	-11.5304
▁wire	-11.5307
22	-11.5331
▁sale	-11.535
▁22	-11.5381
▁Fate	-11.539
horse	-11.5424
donate	-11.5431
▁boil	-11.5436
▁inhabit	-11.5437
▁communicate	-11.5441
▁relieve	-11.5441
▁pronounce	-11.5441
▁complex	-11.5473
▁WARRANT	-11.5477
ABILITY	-11.5477
▁DISTRIBUT	-11.5477
▁Redistributi	-11.5477
▁benevolent	-11.5477
▁colossal	-11.5477
▁continuous	-11.5477
▁dispatch	-11.5477
▁occurrence	-11.5477
▁responsibility	-11.5477
▁scrutinize	-11.5477
▁staggered	-11.5477
▁strive	-11.5477
▁tattered	-11.5477
▁virtuous	-11.5477
Defect	-11.5477
▁Daniel	-11.5477
▁FIRST	-11.5477
▁Jacopo	-11.5477
▁Naples	-11.5477
▁harbor	-11.5477
▁idiot	-11.5477
▁yacht	-11.5477
▁Friar	-11.5477
▁Polish	-11.5477
▁fishermen	-11.5477
▁rubbing	-11.5477
Adieu	-11.5478
▁Babet	-11.5478
▁pledge	-11.5478
▁Toulon	-11.5478
▁inserted	-11.5478
▁hired	-11.5478
▁exterminat	-11.5478
▁isolated	-11.5478
▁extinct	-11.5478
▁WARRANTY	-11.5478
▁sugar	-11.5478
▁tries	-11.5478
▁confidential	-11.5478
▁piteous	-11.5479
▁Philippe	-11.5479
▁drone	-11.5479
▁disappearance	-11.5481
▁headquarters	-11.5481
▁lamb	-11.5482
▁incur	-11.5482
▁Jack	-11.5483
▁electronically	-11.5487
▁rebel	-11.549
▁BY	-11.5493
▁department	-11.5495
INE	-11.5501
▁suggestion	-11.5502
▁Six	-11.5502
▁beforehand	-11.5507
▁Young	-11.5511
pass	-11.5514
▁rider	-11.5517
Pardon	-11.5521
▁distracted	-11.5521
▁overboard	-11.5522
▁whaleman	-11.5528
▁sheath	-11.5532
bri	-11.5541
▁deposit	-11.5588
▁woo	-11.5629
ipping	-11.5633
azz	-11.5635
plan	-11.5639
water	-11.5656
▁Arch	-11.567
▁marsh	-11.569
▁Monkeys	-11.571
▁PARIS	-11.571
▁beseech	-11.571
▁cliff	-11.571
▁delicious	-11.571
▁dynasty	-11.571
▁haggard	-11.571
▁mattress	-11.571
▁network	-11.571
▁nowadays	-11.571
▁nymph	-11.571
▁petticoat	-11.571
▁recompense	-11.571
▁rubbish	-11.571
▁stump	-11.571
▁vapor	-11.571
▁vigil	-11.571
▁plough	-11.571
▁Dardan	-11.571
▁Ocean	-11.571
▁worry	-11.571
▁overheard	-11.571
▁undertaking	-11.571
ography	-11.571
▁degrad	-11.571
▁scorch	-11.571
▁rapture	-11.571
▁margin	-11.571
▁epic	-11.5711
▁criticism	-11.5711
▁basin	-11.5711
▁Angel	-11.5712
graph	-11.5712
▁teacher	-11.5712
▁nineteenth	-11.5713
▁Down	-11.5718
▁Hands	-11.5723
▁advantageous	-11.5723
▁massive	-11.5723
▁interpretation	-11.5724
▁blackened	-11.5728
▁highway	-11.5728
▁brat	-11.5729
▁smashed	-11.573
▁briskly	-11.573
▁ox	-11.5733
▁politely	-11.574
UM	-11.5741
▁gentleness	-11.5744
▁conqueror	-11.5793
▁swan	-11.5807
were	-11.5886
machine	-11.5893
(	-11.5894
perhaps	-11.5894
Say	-11.5894
▁stamp	-11.5898
Two	-11.5899
▁barn	-11.5907
▁twist	-11.5907
▁flush	-11.5908
▁constitute	-11.5912
▁accuse	-11.5912
▁hesitate	-11.5912
▁plunge	-11.5912
▁rouse	-11.5915
titude	-11.5925
▁abrupt	-11.5925
▁historic	-11.5925
drawn	-11.5946
▁Arakchéev	-11.5948
▁Euryclea	-11.5948
▁Favourite	-11.5948
▁Virgin	-11.5948
▁Wizard	-11.5948
▁cabriolet	-11.5948
▁clump	-11.5948
▁crucifix	-11.5948
▁delirium	-11.5948
▁diligence	-11.5948
▁disconcert	-11.5948
▁eccentric	-11.5948
▁feminine	-11.5948
▁geese	-11.5948
▁geometry	-11.5948
▁judging	-11.5948
▁malice	-11.5948
▁manuscript	-11.5948
▁muttering	-11.5948
▁paternal	-11.5948
▁penetrating	-11.5948
▁prudence	-11.5948
▁resentment	-11.5948
▁schooner	-11.5948
▁solution	-11.5948
▁stupefied	-11.5948
▁temporary	-11.5948
▁trifling	-11.5948
▁vacant	-11.5948
▁Laigle	-11.5948
▁dictate	-11.5948
▁filth	-11.5948
▁newcomer	-11.5948
▁caprice	-11.5948
▁bunch	-11.5948
▁drain	-11.5948
▁pulse	-11.5948
▁humming	-11.5948
▁woollen	-11.5948
▁indirectly	-11.5948
▁tutor	-11.5948
▁tolerable	-11.5948
▁thankful	-11.5949
▁faded	-11.5949
▁hull	-11.5949
▁1830	-11.5949
▁deprive	-11.595
▁Ladyship	-11.595
▁portress	-11.5951
▁blanket	-11.5951
▁battlefield	-11.5951
Ray	-11.5951
▁gush	-11.5953
▁crop	-11.5953
▁Diary	-11.5953
▁omit	-11.5955
▁revelation	-11.5957
▁packet	-11.5958
▁majority	-11.5958
shire	-11.5959
▁lick	-11.596
▁China	-11.5961
▁reform	-11.5966
▁honourable	-11.5969
▁dishes	-11.597
▁peculiarity	-11.5972
▁quest	-11.5972
ARD	-11.5974
▁troop	-11.5974
▁flashes	-11.598
▁lair	-11.598
▁fain	-11.5982
▁lent	-11.5994
▁100	-11.6014
▁ensur	-11.6103
NCE	-11.6112
▁leak	-11.6118
Help	-11.6126
▁threaten	-11.613
break	-11.6131
because	-11.6138
cited	-11.6141
▁conclude	-11.6156
▁positive	-11.6168
▁sullen	-11.6192
▁According	-11.6192
▁Alexéevich	-11.6192
▁Hertfordshire	-11.6192
▁Journal	-11.6192
▁Oriental	-11.6192
▁Rucastle	-11.6192
▁Square	-11.6192
▁bonnet	-11.6192
▁clenched	-11.6192
▁desirable	-11.6192
▁everlasting	-11.6192
▁identity	-11.6192
▁intrepid	-11.6192
▁lunatic	-11.6192
▁promotion	-11.6192
▁proprietor	-11.6192
▁refusing	-11.6192
▁scholar	-11.6192
▁subordinate	-11.6192
▁superintend	-11.6192
▁vicomte	-11.6192
▁welfare	-11.6192
▁whiskers	-11.6192
▁boom	-11.6192
▁descried	-11.6192
▁hesitating	-11.6192
▁mysteries	-11.6192
▁reckless	-11.6192
▁rigging	-11.6192
▁Above	-11.6192
▁garret	-11.6192
▁inference	-11.6192
▁recess	-11.6192
▁pump	-11.6192
▁supposition	-11.6192
▁XIX	-11.6192
▁monkey	-11.6192
▁loom	-11.6192
▁Greenland	-11.6192
▁bidding	-11.6193
▁sauce	-11.6193
▁Lavr	-11.6193
▁Bourgh	-11.6193
▁latitude	-11.6193
▁section	-11.6194
▁Monday	-11.6194
▁(“	-11.6195
▁beauties	-11.6195
Forgive	-11.6196
▁cycl	-11.6197
▁errand	-11.6197
▁royalty	-11.6198
▁Hansel	-11.6201
▁remainder	-11.6204
▁deuce	-11.6205
▁startling	-11.6205
▁convulsively	-11.6206
▁hive	-11.6206
▁Instead	-11.6207
▁housekeeper	-11.621
▁Mayor	-11.622
▁historian	-11.6224
▁Over	-11.6226
12	-11.6233
▁avert	-11.6234
▁tame	-11.6259
▁compel	-11.629
▁renounce	-11.631
▁Pole	-11.6326
▁taper	-11.6331
keep	-11.6351
wheel	-11.6387
from	-11.6388
good	-11.6393
pond	-11.6395
Right	-11.6399
▁reappear	-11.6401
▁wag	-11.6404
sheet	-11.6407
▁adore	-11.6416
back	-11.6421
▁Honor	-11.643
▁Austria	-11.6431
witt	-11.6433
----"	-11.6442
Steelkilt	-11.6442
herkóv	-11.6442
rchbishop	-11.6442
▁Carnival	-11.6442
▁Davout	-11.6442
▁Dormouse	-11.6442
▁HAV	-11.6442
▁Joseph	-11.6442
▁McCarthy	-11.6442
▁Montague	-11.6442
▁Pelides	-11.6442
▁Whitby	-11.6442
▁august	-11.6442
▁bridegroom	-11.6442
▁corporal	-11.6442
▁evince	-11.6442
▁holiday	-11.6442
▁malicious	-11.6442
▁populace	-11.6442
▁profile	-11.6442
▁rampart	-11.6442
▁republic	-11.6442
▁responsible	-11.6442
▁syllable	-11.6442
▁undoubtedly	-11.6442
▁Golden	-11.6442
▁abhor	-11.6442
▁dishonor	-11.6442
▁ethereal	-11.6442
▁insolence	-11.6442
▁insolent	-11.6442
▁photograph	-11.6442
▁stalk	-11.6442
▁thrill	-11.6442
▁Athenian	-11.6442
▁warfare	-11.6442
▁intolerable	-11.6442
▁aperture	-11.6442
▁wield	-11.6442
▁northern	-11.6442
▁engine	-11.6442
▁picturesque	-11.6442
▁muddy	-11.6442
▁nodding	-11.6442
▁phase	-11.6442
▁visage	-11.6442
▁forbear	-11.6442
▁crystal	-11.6443
▁linked	-11.6443
▁negro	-11.6443
▁wiping	-11.6443
▁writh	-11.6443
▁pitied	-11.6444
▁Almost	-11.6444
▁Yao	-11.6444
▁Forster	-11.6445
▁scamp	-11.6445
▁Corinth	-11.6445
▁shan	-11.6446
▁commencement	-11.6446
▁cruelty	-11.6447
▁kneeling	-11.6449
▁repast	-11.645
▁overcoat	-11.6464
▁Rose	-11.6484
▁tossing	-11.6486
▁affi	-11.6494
cogn	-11.6504
▁wig	-11.6516
▁revere	-11.6568
▁acquire	-11.6662
▁associate	-11.6662
▁expose	-11.6668
▁mechanical	-11.6675
tino	-11.6683
▁Sparta	-11.6687
Martin	-11.6691
▁Ilyín	-11.6698
▁Renée	-11.6698
▁Thomson	-11.6698
▁Weyrother	-11.6698
▁accursed	-11.6698
▁ambitious	-11.6698
▁calèche	-11.6698
▁caution	-11.6698
▁clumsy	-11.6698
▁crazy	-11.6698
▁eloquence	-11.6698
▁eloquent	-11.6698
▁facility	-11.6698
▁gliding	-11.6698
▁indispensable	-11.6698
▁inevitably	-11.6698
▁invariably	-11.6698
▁involuntary	-11.6698
▁moustache	-11.6698
▁perceptible	-11.6698
▁phenomenon	-11.6698
▁serenity	-11.6698
▁specimen	-11.6698
▁suburb	-11.6698
▁truce	-11.6698
Sinbad	-11.6698
▁Palace	-11.6698
▁committee	-11.6698
▁senior	-11.6698
▁vicious	-11.6698
▁brink	-11.6698
▁chicken	-11.6698
▁hypo	-11.6698
▁passenger	-11.6698
▁stray	-11.6699
▁courtesy	-11.6699
Probably	-11.6699
▁liable	-11.6699
▁menacing	-11.6699
▁behaved	-11.6699
▁slipping	-11.67
▁representative	-11.67
▁genial	-11.67
▁whim	-11.67
ITY	-11.6701
evenue	-11.6702
▁sparkled	-11.6702
▁trim	-11.6703
▁random	-11.6703
▁utterance	-11.6706
step	-11.6707
▁ballroom	-11.6707
▁curé	-11.6707
▁nightfall	-11.6708
▁hateful	-11.6723
▁bled	-11.6733
▁80	-11.6781
▁signify	-11.6795
arried	-11.6808
▁undi	-11.6826
▁shameful	-11.6853
VER	-11.6872
Please	-11.6907
Lord	-11.6907
▁sap	-11.6915
▁execute	-11.6925
▁precede	-11.6926
court	-11.6947
▁product	-11.6954
ATION	-11.6957
Twenty	-11.6962
Precisely	-11.6962
▁Already	-11.6962
▁Freemason	-11.6962
▁Gaetano	-11.6962
▁Lestrade	-11.6962
▁Pacific	-11.6962
▁Sleep	-11.6962
▁Society	-11.6962
▁afresh	-11.6962
▁bankrupt	-11.6962
▁condescend	-11.6962
▁consternation	-11.6962
▁continuing	-11.6962
▁entrusted	-11.6962
▁equivalent	-11.6962
▁exaggerate	-11.6962
▁inconvenience	-11.6962
▁ineffable	-11.6962
▁intimacy	-11.6962
▁knelt	-11.6962
▁mathematical	-11.6962
▁nocturnal	-11.6962
▁obedient	-11.6962
▁promising	-11.6962
▁rapturous	-11.6962
▁rejoicing	-11.6962
▁shalt	-11.6962
▁shrink	-11.6962
▁telegram	-11.6962
▁terrific	-11.6962
▁vigour	-11.6962
▁voluptuous	-11.6962
▁carbine	-11.6962
▁convoy	-11.6962
▁gayety	-11.6962
▁reaction	-11.6962
▁transition	-11.6962
▁surmise	-11.6962
▁mound	-11.6962
▁END	-11.6962
▁baker	-11.6962
▁infect	-11.6962
Believe	-11.6962
▁proving	-11.6962
▁bribe	-11.6962
▁olive	-11.6962
▁rifle	-11.6962
▁Saturn	-11.6963
▁tact	-11.6964
▁data	-11.6965
▁afar	-11.6966
▁Gray	-11.6966
▁management	-11.697
▁barred	-11.6971
▁curled	-11.6971
▁regretted	-11.6972
▁trail	-11.6972
▁foreseen	-11.6973
▁realities	-11.6974
▁swiftness	-11.6983
▁assertion	-11.6988
▁Park	-11.7015
shore	-11.7032
▁smit	-11.7121
▁60	-11.7149
▁hind	-11.7177
text	-11.718
Hold	-11.7186
▁pierce	-11.7196
said	-11.72
coach	-11.7209
Rep	-11.721
▁buckle	-11.7217
▁foresee	-11.7221
▁batter	-11.7222
extinguish	-11.7232
▁excavat	-11.7232
Evidently	-11.7232
Homme	-11.7232
▁1832	-11.7232
▁Calypso	-11.7232
▁Carlini	-11.7232
▁Dessalles	-11.7232
▁Hercules	-11.7232
▁Mercury	-11.7232
▁Polemarchus	-11.7232
▁Sarpedon	-11.7232
▁ambassador	-11.7232
▁asylum	-11.7232
▁blubber	-11.7232
▁crooked	-11.7232
▁exploit	-11.7232
▁felicity	-11.7232
▁hammock	-11.7232
▁identify	-11.7232
▁illustration	-11.7232
▁infamous	-11.7232
▁intoxicated	-11.7232
▁negative	-11.7232
▁precision	-11.7232
▁proclamation	-11.7232
▁salvation	-11.7232
▁satisfactory	-11.7232
▁secrecy	-11.7232
▁treachery	-11.7232
▁uplifted	-11.7232
▁vegetable	-11.7232
▁violet	-11.7232
▁ancestor	-11.7232
▁chemist	-11.7232
▁interposed	-11.7232
▁stool	-11.7232
▁cardinal	-11.7232
▁compressed	-11.7232
▁modified	-11.7232
▁unheard	-11.7232
▁gnaw	-11.7232
▁wrench	-11.7232
▁usurper	-11.7232
▁birch	-11.7232
▁artisan	-11.7232
▁southern	-11.7232
▁squall	-11.7232
▁spindle	-11.7232
▁James	-11.7232
ABLE	-11.7232
▁Close	-11.7232
▁partition	-11.7232
▁ruling	-11.7232
▁Hardly	-11.7232
▁Time	-11.7232
▁alluded	-11.7233
▁earliest	-11.7233
▁noisy	-11.7233
▁fiction	-11.7233
▁organized	-11.7233
▁WILL	-11.7233
▁Arras	-11.7234
▁ragged	-11.7234
▁Mount	-11.7234
▁stockade	-11.7234
▁Armé	-11.7235
▁slay	-11.7236
▁considerably	-11.7239
▁orange	-11.724
▁Road	-11.724
▁Prussian	-11.7243
▁morality	-11.7247
▁attraction	-11.7261
▁gust	-11.73
▁stat	-11.736
entered	-11.7393
WHA	-11.7419
Hallo	-11.7447
About	-11.7455
chamber	-11.7455
called	-11.746
▁caus	-11.7466
▁release	-11.7473
▁rustle	-11.7483
▁brisk	-11.7486
▁prominent	-11.7486
▁thorough	-11.7486
▁Prussia	-11.7498
volution	-11.7505
▁snap	-11.7509
▁buzzing	-11.751
Buonaparte	-11.751
▁Barrière	-11.751
▁Boulevard	-11.751
▁Fitzwilliam	-11.751
▁approval	-11.751
▁barefoot	-11.751
▁crouching	-11.751
▁cushion	-11.751
▁definition	-11.751
▁disposal	-11.751
▁distorted	-11.751
▁doctrine	-11.751
▁embark	-11.751
▁emerging	-11.751
▁enquiry	-11.751
▁flukes	-11.751
▁frozen	-11.751
▁impossibility	-11.751
▁indebted	-11.751
▁perpendicular	-11.751
▁persecut	-11.751
▁propriety	-11.751
▁regulate	-11.751
▁separation	-11.751
▁sprinkle	-11.751
▁stubborn	-11.751
▁suicide	-11.751
▁superfluous	-11.751
▁suppliant	-11.751
▁treacherous	-11.751
▁crisis	-11.751
▁dismounted	-11.751
▁estimate	-11.751
▁Finally	-11.751
▁Legion	-11.751
▁consort	-11.751
▁central	-11.751
▁impending	-11.751
▁valour	-11.751
▁Consider	-11.751
▁Major	-11.751
▁tackle	-11.751
▁chorus	-11.751
▁Title	-11.751
▁repay	-11.751
▁endowed	-11.751
▁Surely	-11.751
▁anoint	-11.751
▁combatants	-11.751
▁supple	-11.751
▁ransom	-11.751
▁digging	-11.7511
▁innkeeper	-11.7511
▁dramatic	-11.7511
▁Nature	-11.7512
▁batteries	-11.7512
▁ridden	-11.7512
▁entail	-11.7512
▁justify	-11.7512
▁prosperity	-11.7513
▁spray	-11.7513
▁leaf	-11.7513
▁alien	-11.7513
▁eastward	-11.7514
▁reap	-11.7514
▁bigger	-11.7515
▁64	-11.7517
▁hoary	-11.7521
▁cran	-11.7524
▁Creat	-11.7524
▁pope	-11.7525
▁buckler	-11.7525
▁Unless	-11.7527
▁starry	-11.7528
▁secretary	-11.753
▁professor	-11.7533
▁dismiss	-11.7594
▁vote	-11.7672
▁hump	-11.773
bank	-11.7741
those	-11.7741
giving	-11.7741
burn	-11.7744
▁suspend	-11.7755
▁traverse	-11.7759
▁devote	-11.7759
▁oblige	-11.7759
▁incline	-11.776
▁nineteen	-11.7791
▁hypnoti	-11.7795
▁Bahorel	-11.7795
▁Geneva	-11.7795
▁Ivánovich	-11.7795
▁Phrygian	-11.7795
▁Tuileries	-11.7795
▁administer	-11.7795
▁antiquity	-11.7795
▁arithmetic	-11.7795
▁association	-11.7795
▁benevolence	-11.7795
▁carcase	-11.7795
▁collapse	-11.7795
▁dignified	-11.7795
▁entitled	-11.7795
▁expedient	-11.7795
▁expiration	-11.7795
▁happiest	-11.7795
▁horribly	-11.7795
▁imitator	-11.7795
▁imperceptible	-11.7795
▁intermediate	-11.7795
▁knapsack	-11.7795
▁lugubrious	-11.7795
▁malady	-11.7795
▁precipitate	-11.7795
▁preoccupied	-11.7795
▁shaggy	-11.7795
▁snake	-11.7795
▁squeeze	-11.7795
▁suspense	-11.7795
▁thunderbolt	-11.7795
▁underneath	-11.7795
▁wreath	-11.7795
▁Dracula	-11.7795
▁Hucheloup	-11.7795
▁bachelor	-11.7795
▁depict	-11.7795
▁eyelids	-11.7795
▁offensive	-11.7795
▁wheat	-11.7795
▁Spada	-11.7795
▁Chamber	-11.7795
▁mirth	-11.7795
▁affright	-11.7795
▁prior	-11.7795
▁twin	-11.7796
▁Atreus	-11.7796
▁pausing	-11.7796
▁calf	-11.7796
▁loyal	-11.7796
▁chaos	-11.7796
▁waggon	-11.7796
▁blend	-11.7796
▁uprising	-11.7796
▁governess	-11.7796
▁intersect	-11.7796
▁reverence	-11.7796
▁oracle	-11.7796
▁Boville	-11.7796
▁grimace	-11.7797
Silence	-11.7797
▁outrage	-11.7798
▁Platonic	-11.7798
▁Behold	-11.7798
buoy	-11.7798
▁alert	-11.7799
▁trampled	-11.78
▁correspondent	-11.78
▁accessible	-11.78
▁troublesome	-11.78
▁collective	-11.78
▁perilous	-11.7801
▁partake	-11.7801
▁crackling	-11.7802
▁Know	-11.7802
▁artilleryman	-11.7802
▁bump	-11.7803
▁theories	-11.7803
▁resignation	-11.7804
▁quitting	-11.7804
▁consistent	-11.7804
▁abide	-11.7805
▁curling	-11.7807
▁designated	-11.7808
▁brim	-11.781
▁Order	-11.781
▁gang	-11.7812
▁Marshal	-11.782
▁girdle	-11.7839
Enough	-11.7873
▁instruction	-11.7877
▁logical	-11.7888
▁400	-11.7903
ibi	-11.7935
▁disdainful	-11.7937
Ssu	-11.7988
horn	-11.8009
Another	-11.8035
Mother	-11.8035
broken	-11.8035
▁calculate	-11.8053
▁resume	-11.8053
▁compose	-11.8057
▁dispose	-11.8062
▁XX	-11.8072
▁prosper	-11.8087
▁classic	-11.8089
▁incredulous	-11.8089
Exeunt	-11.8089
MARIUS	-11.8089
▁December	-11.8089
▁Idomeneus	-11.8089
▁Munchkin	-11.8089
▁Wilmore	-11.8089
▁admirably	-11.8089
▁athwart	-11.8089
▁cathedral	-11.8089
▁clamour	-11.8089
▁commercial	-11.8089
▁conscientious	-11.8089
▁culprit	-11.8089
▁exclusion	-11.8089
▁explore	-11.8089
▁grandpapa	-11.8089
▁interrogate	-11.8089
▁miraculous	-11.8089
▁outstretched	-11.8089
▁persuasion	-11.8089
▁rabbit	-11.8089
▁smote	-11.8089
▁soothing	-11.8089
▁supernatural	-11.8089
▁unprotected	-11.8089
▁worried	-11.8089
▁Serene	-11.8089
▁discreet	-11.8089
▁enclosed	-11.8089
▁intensity	-11.8089
▁subdued	-11.8089
▁burial	-11.809
▁tidings	-11.809
▁discord	-11.809
▁vengeful	-11.809
▁Hurst	-11.809
▁pillar	-11.809
▁assuming	-11.809
▁adieu	-11.809
▁goblet	-11.809
▁tyrannical	-11.809
▁Joly	-11.809
▁basis	-11.809
▁vase	-11.809
▁sworn	-11.809
▁tendency	-11.809
▁peal	-11.809
▁indulgence	-11.8092
▁transfer	-11.8092
▁spacious	-11.8092
▁Strange	-11.8092
▁beef	-11.8093
▁gaunt	-11.8093
▁laborious	-11.8094
▁remarkably	-11.8095
▁aspire	-11.8095
▁revolutionary	-11.8096
▁rustic	-11.8097
▁Egyptian	-11.8097
▁202	-11.8098
▁brightened	-11.81
▁hardship	-11.81
▁favorable	-11.8101
▁dint	-11.8117
▁vous	-11.8119
▁dye	-11.8145
▁wool	-11.8166
▁volunteer	-11.8174
▁Beside	-11.8183
piti	-11.8203
▁congratulat	-11.8224
Put	-11.8243
▁democratic	-11.8291
Natásha	-11.8338
Captain	-11.8338
▁irritat	-11.8352
▁assign	-11.8362
▁stab	-11.8372
fell	-11.8387
▁shipwreck	-11.8393
Immediately	-11.8393
▁Daggoo	-11.8393
▁Heffalump	-11.8393
▁January	-11.8393
▁Otrádnoe	-11.8393
▁Pythagorean	-11.8393
▁SAILOR	-11.8393
▁Samsa	-11.8393
▁Snowdrop	-11.8393
▁crutch	-11.8393
▁disciple	-11.8393
▁dripping	-11.8393
▁earthquake	-11.8393
▁entangled	-11.8393
▁gunwale	-11.8393
▁horrified	-11.8393
▁identical	-11.8393
▁intercourse	-11.8393
▁paradox	-11.8393
▁policy	-11.8393
▁producing	-11.8393
▁repulsive	-11.8393
▁scientific	-11.8393
▁uneasily	-11.8393
TRACT	-11.8393
▁envious	-11.8393
▁literally	-11.8393
▁literary	-11.8393
▁metallic	-11.8393
▁translated	-11.8393
▁cuirassiers	-11.8393
▁pitiless	-11.8393
LUME	-11.8393
▁parlor	-11.8393
▁commend	-11.8393
▁Cocles	-11.8393
▁western	-11.8393
▁Deep	-11.8393
▁tribe	-11.8393
▁Woe	-11.8393
▁apology	-11.8393
▁sabre	-11.8393
▁paved	-11.8393
▁demonstrat	-11.8393
Follow	-11.8393
▁horizontal	-11.8393
▁composition	-11.8393
▁flapp	-11.8393
▁recurred	-11.8393
▁tripod	-11.8394
▁riddle	-11.8394
▁Horn	-11.8395
▁inheritance	-11.8395
▁barren	-11.8395
▁omitted	-11.8396
▁excel	-11.8396
▁northward	-11.8397
▁blacksmith	-11.8397
▁tapped	-11.8398
ATIONS	-11.8398
▁announcement	-11.8399
▁Haste	-11.84
▁Grace	-11.84
▁peculiarities	-11.84
▁straightened	-11.8402
▁clash	-11.8402
▁attendance	-11.8403
▁legislator	-11.8403
▁parish	-11.8404
▁preside	-11.8406
settling	-11.8426
▁slacken	-11.8462
appe	-11.8489
ancing	-11.8581
luding	-11.8588
▁rug	-11.8627
direct	-11.865
satisfaction	-11.865
▁connect	-11.8653
▁prolong	-11.8667
▁extra	-11.8673
▁Certain	-11.8682
▁speculat	-11.8684
▁intercept	-11.8705
Germain	-11.8705
▁Bastille	-11.8705
▁Beyond	-11.8705
▁Ermólov	-11.8705
▁UNDER	-11.8705
▁Vílna	-11.8705
▁abundance	-11.8705
▁apprehend	-11.8705
▁bouquet	-11.8705
▁brazier	-11.8705
▁cannibal	-11.8705
▁captivity	-11.8705
▁choking	-11.8705
▁conspicuous	-11.8705
▁crouched	-11.8705
▁deception	-11.8705
▁disinterested	-11.8705
▁dissolve	-11.8705
▁elegance	-11.8705
▁elevation	-11.8705
▁enraged	-11.8705
▁exciting	-11.8705
▁fragrant	-11.8705
▁furrow	-11.8705
▁granite	-11.8705
▁imaginary	-11.8705
▁industry	-11.8705
▁inscription	-11.8705
▁intelligible	-11.8705
▁introducing	-11.8705
▁mathematics	-11.8705
▁metaphor	-11.8705
▁muffled	-11.8705
▁orchestra	-11.8705
▁recruit	-11.8705
▁requisite	-11.8705
▁revolving	-11.8705
▁sensitive	-11.8705
▁shabby	-11.8705
▁streak	-11.8705
▁surgeon	-11.8705
▁unfamiliar	-11.8705
▁unhappiness	-11.8705
▁urchin	-11.8705
▁companies	-11.8705
▁enjoin	-11.8705
▁Club	-11.8705
▁Dryden	-11.8705
▁imperious	-11.8705
▁leeward	-11.8705
▁infamy	-11.8705
Exit	-11.8705
▁History	-11.8705
▁sincerity	-11.8705
▁peck	-11.8705
▁bustle	-11.8705
xii	-11.8705
▁Turkey	-11.8706
▁incense	-11.8706
▁schoolmaster	-11.8706
▁forsake	-11.8706
▁hydra	-11.8706
▁interference	-11.8706
▁cheap	-11.8706
▁spinning	-11.8707
▁Ilyá	-11.8707
THING	-11.8707
▁astern	-11.8708
▁Turkish	-11.8708
▁fray	-11.8708
▁turnkey	-11.8708
▁accidentally	-11.8708
▁Winged	-11.8709
ILL	-11.8709
▁feign	-11.8709
▁miseries	-11.8709
▁attractive	-11.8709
▁compact	-11.8709
▁commonplace	-11.8709
▁alighted	-11.8709
▁Dante	-11.8711
▁Light	-11.8713
▁entertainment	-11.8716
▁diplomatic	-11.8741
▁Clair	-11.8764
wait	-11.8828
propos	-11.895
Letter	-11.8959
attorney	-11.8973
Mamma	-11.8973
Iliad	-11.8973
▁celebrat	-11.8987
▁puzzle	-11.8991
▁Cardinal	-11.9028
▁Cretan	-11.9028
▁Mediterranean	-11.9028
▁Mondétour	-11.9028
▁Nicolette	-11.9028
▁Prouvaire	-11.9028
▁Wednesday	-11.9028
▁Wolfshiem	-11.9028
▁accomplice	-11.9028
▁astronomy	-11.9028
▁barbarous	-11.9028
▁commotion	-11.9028
▁conflagration	-11.9028
▁convulsion	-11.9028
▁coronet	-11.9028
▁discretion	-11.9028
▁ecstatic	-11.9028
▁esaul	-11.9028
▁foliage	-11.9028
▁furnace	-11.9028
▁grudge	-11.9028
▁hecatomb	-11.9028
▁inexorable	-11.9028
▁inexplicable	-11.9028
▁insufficient	-11.9028
▁labyrinth	-11.9028
▁languid	-11.9028
▁magnitude	-11.9028
▁manufacture	-11.9028
▁prescribed	-11.9028
▁refulgent	-11.9028
▁remnant	-11.9028
▁removing	-11.9028
▁scrutinizing	-11.9028
▁strode	-11.9028
▁substitute	-11.9028
▁territory	-11.9028
▁tilbury	-11.9028
▁trivial	-11.9028
▁unlucky	-11.9028
▁unprecedented	-11.9028
▁Further	-11.9028
▁disquiet	-11.9028
▁economi	-11.9028
▁eventually	-11.9028
▁dreary	-11.9028
▁robust	-11.9028
▁squeak	-11.9028
▁Morgan	-11.9028
▁pitiful	-11.9028
▁drench	-11.9028
▁busily	-11.9028
eminent	-11.9028
▁snort	-11.9028
▁treatise	-11.9028
▁enigma	-11.9028
▁inviting	-11.9028
▁sulk	-11.9028
▁alms	-11.9028
Welcome	-11.9029
▁banner	-11.9029
▁forgetfulness	-11.9029
▁gasping	-11.9029
▁repell	-11.903
▁Mouse	-11.903
▁stripped	-11.903
▁winning	-11.903
▁RIGHT	-11.9031
▁plateau	-11.9031
▁jack	-11.9031
▁clang	-11.9031
▁parson	-11.9032
▁courteous	-11.9033
Grote	-11.9036
▁accomplishment	-11.9045
▁Pyr	-11.9083
opping	-11.9135
Upon	-11.9306
profit	-11.9306
knife	-11.9306
Heaven	-11.9306
First	-11.9306
Long	-11.9307
Thus	-11.9307
screw	-11.9307
▁morn	-11.9319
▁illuminat	-11.9321
▁define	-11.9325
▁arouse	-11.9328
▁villa	-11.9353
preservation	-11.9361
▁Chanticleer	-11.9361
▁Imperial	-11.9361
▁Makár	-11.9361
▁READ	-11.9361
▁Scotland	-11.9361
▁Telyánin	-11.9361
▁Thursday	-11.9361
▁censure	-11.9361
▁colleague	-11.9361
▁compromise	-11.9361
▁episode	-11.9361
▁falchion	-11.9361
▁faubourg	-11.9361
▁imagining	-11.9361
▁impenetrable	-11.9361
▁inflame	-11.9361
▁legitimate	-11.9361
▁magnificence	-11.9361
▁outburst	-11.9361
▁pavilion	-11.9361
▁petrified	-11.9361
▁prohibition	-11.9361
▁reinforce	-11.9361
▁ruddy	-11.9361
▁splinter	-11.9361
▁transparent	-11.9361
▁ungrateful	-11.9361
▁vagabond	-11.9361
▁vampire	-11.9361
▁yawning	-11.9361
▁Café	-11.9361
▁Frank	-11.9361
▁blunt	-11.9361
▁buccaneer	-11.9361
▁riveted	-11.9361
▁snug	-11.9361
▁invasion	-11.9361
▁joking	-11.9361
▁martyr	-11.9361
▁glaring	-11.9361
▁strap	-11.9361
Whither	-11.9361
▁Opera	-11.9361
▁Sophist	-11.9361
▁Austen	-11.9361
▁chisel	-11.9361
▁postilion	-11.9361
▁posterity	-11.9361
▁Diana	-11.9361
Unhapp	-11.9361
▁sceptic	-11.9361
▁wrest	-11.9361
▁tedious	-11.9361
▁sneer	-11.9361
▁consign	-11.9361
▁pathetic	-11.9361
▁blond	-11.9361
▁Water	-11.9361
▁heiress	-11.9362
▁scann	-11.9362
▁Blanc	-11.9362
▁subscribe	-11.9362
▁jolt	-11.9362
▁snapped	-11.9362
▁401	-11.9362
▁despot	-11.9363
▁naught	-11.9364
▁trance	-11.9364
▁revert	-11.9364
▁1805	-11.9365
▁rustling	-11.9366
▁declaration	-11.9366
hound	-11.9367
▁heifer	-11.937
▁clappe	-11.9445
nker	-11.9466
▁stair	-11.9488
▁disclaim	-11.9644
Three	-11.9651
whether	-11.9651
Cosette	-11.9651
▁revel	-11.9698
▁peas	-11.9704
▁diligent	-11.9706
▁discontent	-11.9706
▁Aegisthus	-11.9706
▁Caterpillar	-11.9706
▁Colosseum	-11.9706
▁Fortunately	-11.9706
▁Gabriel	-11.9706
▁Gervais	-11.9706
▁Magnon	-11.9706
▁Pávlograd	-11.9706
▁SECOND	-11.9706
▁Scamander	-11.9706
▁Shevárdino	-11.9706
▁Shinshín	-11.9706
▁Timókhin	-11.9706
▁Uhlans	-11.9706
▁Willarski	-11.9706
▁Winkies	-11.9706
▁admiring	-11.9706
▁advertisement	-11.9706
▁analogy	-11.9706
▁anticipation	-11.9706
▁appalling	-11.9706
▁applause	-11.9706
▁astound	-11.9706
▁chemise	-11.9706
▁circular	-11.9706
▁contributions	-11.9706
▁cruising	-11.9706
▁culture	-11.9706
▁deliberation	-11.9706
▁disadvantage	-11.9706
▁eclipse	-11.9706
▁explosion	-11.9706
▁financial	-11.9706
▁glimmer	-11.9706
▁grenadier	-11.9706
▁independence	-11.9706
▁infernal	-11.9706
▁phenomena	-11.9706
▁primitive	-11.9706
▁ravine	-11.9706
▁ravish	-11.9706
▁regulating	-11.9706
▁shrub	-11.9706
▁superstitious	-11.9706
▁terrestrial	-11.9706
▁Assizes	-11.9706
▁Twice	-11.9706
▁clergy	-11.9706
▁cobbler	-11.9706
▁loophole	-11.9706
▁oblivio	-11.9706
▁parlour	-11.9706
▁BUT	-11.9706
▁Myriel	-11.9706
▁depression	-11.9706
▁envoy	-11.9706
▁fraud	-11.9706
CHANT	-11.9706
▁Thames	-11.9706
▁dissipate	-11.9706
▁insect	-11.9706
▁piano	-11.9706
▁enquire	-11.9706
▁Crete	-11.9706
▁lazy	-11.9706
▁Safe	-11.9706
▁spouse	-11.9706
▁deduce	-11.9706
▁USE	-11.9706
▁coincidence	-11.9706
▁millionaire	-11.9706
▁inscribed	-11.9706
▁nook	-11.9706
▁transcrib	-11.9707
▁Athens	-11.9707
▁pondered	-11.9707
▁medical	-11.9707
shaven	-11.9707
Denis	-11.9707
▁lull	-11.9708
▁urgent	-11.9708
▁tough	-11.9713
▁Rap	-11.9721
IDE	-11.9751
rrier	-11.98
▁compete	-11.996
bloo	-11.9965
Tomorrow	-11.9988
Shih	-12.0008
general	-12.0008
friend	-12.0008
grown	-12.0011
▁impose	-12.0027
▁Egypt	-12.0053
▁Wood	-12.0061
Doubtless	-12.0063
Inspector	-12.0063
sensibly	-12.0063
▁Fedallah	-12.0063
▁Francis	-12.0063
▁Frankenstein	-12.0063
▁Krémlin	-12.0063
▁Leghorn	-12.0063
▁Polydamas	-12.0063
▁Restoration	-12.0063
▁Simplice	-12.0063
▁Whilst	-12.0063
▁accuracy	-12.0063
▁assailants	-12.0063
▁breeches	-12.0063
▁circuit	-12.0063
▁decorated	-12.0063
▁disobey	-12.0063
▁dividing	-12.0063
▁edifice	-12.0063
▁epithet	-12.0063
▁ignoble	-12.0063
▁inaccurate	-12.0063
▁infancy	-12.0063
▁mademoiselle	-12.0063
▁maternal	-12.0063
▁obsolete	-12.0063
▁pebble	-12.0063
▁pyramid	-12.0063
▁repetition	-12.0063
▁surmounted	-12.0063
▁swollen	-12.0063
▁sympathetic	-12.0063
▁twinkling	-12.0063
▁Friday	-12.0063
▁authentic	-12.0063
▁bivouac	-12.0063
▁college	-12.0063
▁courier	-12.0063
▁damask	-12.0063
▁gaiety	-12.0063
▁hymn	-12.0063
▁penalty	-12.0063
▁respite	-12.0063
▁straggl	-12.0063
▁unaware	-12.0063
▁Bridge	-12.0063
▁Hesiod	-12.0063
▁infallible	-12.0063
▁modification	-12.0063
▁click	-12.0063
PLACE	-12.0063
PRESS	-12.0063
▁INDI	-12.0063
▁Parsee	-12.0063
TTLE	-12.0063
▁Round	-12.0063
▁Until	-12.0063
▁plait	-12.0063
▁EXCE	-12.0063
▁Scene	-12.0063
▁extricate	-12.0063
▁lump	-12.0063
▁enrich	-12.0063
▁histories	-12.0063
▁snuffbox	-12.0063
▁Fear	-12.0063
▁Hellas	-12.0063
▁promote	-12.0064
▁shelf	-12.0064
▁proposition	-12.0064
▁referring	-12.0065
▁diplomatist	-12.0065
legged	-12.0065
▁slim	-12.0066
LAI	-12.0067
▁lounge	-12.007
Truly	-12.0073
mination	-12.0079
franc	-12.008
fashioned	-12.0115
▁01	-12.0135
ordered	-12.0147
rving	-12.018
TURE	-12.0201
REME	-12.0228
215	-12.0318
respect	-12.0379
Everything	-12.0379
Ulysses	-12.0379
should	-12.0379
green	-12.0379
walk	-12.0382
▁injure	-12.0398
▁stud	-12.0415
▁Corsica	-12.0422
ecto	-12.0424
▁recur	-12.0432
▁hackney	-12.0433
Calvaire	-12.0433
▁Antilochus	-12.0433
▁Atlantic	-12.0433
▁Cephalus	-12.0433
▁Danube	-12.0433
▁EVEN	-12.0433
▁Glaucus	-12.0433
▁Hougomont	-12.0433
▁Mississippi	-12.0433
▁SCENE	-12.0433
▁abundant	-12.0433
▁amazing	-12.0433
▁ammunition	-12.0433
▁barbarians	-12.0433
▁brigade	-12.0433
▁circling	-12.0433
▁contemporary	-12.0433
▁doubloon	-12.0433
▁exclude	-12.0433
▁exclusive	-12.0433
▁expanse	-12.0433
▁fumble	-12.0433
▁implacable	-12.0433
▁luxurious	-12.0433
▁magnet	-12.0433
▁monotonous	-12.0433
▁muzzle	-12.0433
▁nuptial	-12.0433
▁oblique	-12.0433
▁physiognomy	-12.0433
▁recognition	-12.0433
▁steadfast	-12.0433
▁stratagem	-12.0433
▁synonymous	-12.0433
▁telescope	-12.0433
▁tumbling	-12.0433
▁vestibule	-12.0433
▁analysis	-12.0433
▁aristocratic	-12.0433
▁demolish	-12.0433
▁engulf	-12.0433
▁forfeit	-12.0433
▁guillotine	-12.0433
▁neutral	-12.0433
▁relapse	-12.0433
▁shady	-12.0433
▁siege	-12.0433
▁succour	-12.0433
▁British	-12.0433
▁concert	-12.0433
▁violin	-12.0433
▁speck	-12.0433
▁Castle	-12.0433
▁ambrosia	-12.0433
▁dejected	-12.0433
▁parcel	-12.0433
▁Lark	-12.0433
▁dispense	-12.0433
▁socket	-12.0433
▁Hotel	-12.0433
▁bridle	-12.0433
▁plaintive	-12.0433
▁reddish	-12.0433
▁orchard	-12.0433
▁Content	-12.0433
▁Titan	-12.0434
▁chaste	-12.0434
▁thorn	-12.0434
▁Empress	-12.0434
sanguine	-12.0434
Yesterday	-12.0434
▁ascribed	-12.0434
▁XXV	-12.0434
fraction	-12.0435
resuming	-12.0436
▁oats	-12.0436
▁berth	-12.0436
▁wedge	-12.0439
▁CHA	-12.0439
Dame	-12.0444
▁cheat	-12.0453
AIR	-12.0502
116	-12.0511
Hark	-12.0571
rending	-12.0602
bearer	-12.0677
servant	-12.0729
Those	-12.0763
Valentine	-12.0763
first	-12.0764
offering	-12.0764
▁construct	-12.0769
▁Grete	-12.0812
▁disagree	-12.0815
▁transcript	-12.0818
Nonsense	-12.0818
POSE	-12.0818
▁Agatha	-12.0818
▁Beausset	-12.0818
▁Blachevelle	-12.0818
▁Catholic	-12.0818
▁David	-12.0818
▁FOUNDATION	-12.0818
▁Feuilly	-12.0818
▁Gerásim	-12.0818
▁Gorbeau	-12.0818
▁Ilágin	-12.0818
▁Lawrence	-12.0818
▁Melanthius	-12.0818
▁Pisistratus	-12.0818
▁Rousseau	-12.0818
▁Service	-12.0818
▁Special	-12.0818
▁Switzerland	-12.0818
▁Thomas	-12.0818
▁WORK	-12.0818
▁Weybridge	-12.0818
▁adequate	-12.0818
▁appellation	-12.0818
▁applaud	-12.0818
▁auxiliar	-12.0818
▁avenging	-12.0818
▁bequeath	-12.0818
▁chambre	-12.0818
▁crevice	-12.0818
▁deplore	-12.0818
▁elaborate	-12.0818
▁emerald	-12.0818
▁frenzy	-12.0818
▁garrison	-12.0818
▁heavier	-12.0818
▁hospitable	-12.0818
▁illumined	-12.0818
▁illustrate	-12.0818
▁inasmuch	-12.0818
▁injunction	-12.0818
▁knives	-12.0818
▁lecture	-12.0818
▁meditating	-12.0818
▁occupant	-12.0818
▁paroxysm	-12.0818
▁perplexed	-12.0818
▁piastres	-12.0818
▁portmanteau	-12.0818
▁rabble	-12.0818
▁response	-12.0818
▁sacrificing	-12.0818
▁scourge	-12.0818
▁senator	-12.0818
▁succor	-12.0818
▁tattoo	-12.0818
▁tremor	-12.0818
▁umbrella	-12.0818
▁unaccountable	-12.0818
▁unconquer	-12.0818
Stranger	-12.0818
▁Blacas	-12.0818
▁Governor	-12.0818
▁Iván	-12.0818
▁POSSIB	-12.0818
▁acquiesce	-12.0818
▁charities	-12.0818
▁deference	-12.0818
▁indemni	-12.0818
▁smack	-12.0818
▁veritable	-12.0818
IMPLI	-12.0818
▁compilation	-12.0818
▁cruise	-12.0818
▁lavish	-12.0818
▁morsel	-12.0818
▁signifies	-12.0818
▁Robert	-12.0818
▁deputy	-12.0818
▁insanity	-12.0818
▁cotton	-12.0818
▁Lodge	-12.0818
▁Selim	-12.0818
▁imposing	-12.0818
▁Garden	-12.0818
▁feebly	-12.0818
▁gratify	-12.0818
▁Elsie	-12.0818
▁deceit	-12.0818
▁Halles	-12.0818
▁patted	-12.0818
▁studded	-12.0818
▁slate	-12.0818
▁odious	-12.0818
▁dispel	-12.0818
▁Persian	-12.0818
▁flirt	-12.0819
▁affirmative	-12.0819
▁cork	-12.0819
nternational	-12.0819
▁admission	-12.0819
▁fiddle	-12.0819
▁sobbed	-12.0819
▁thud	-12.082
▁oligarchical	-12.082
Women	-12.0821
▁Judg	-12.0821
Devil	-12.0822
▁intonation	-12.0824
prung	-12.0825
solicited	-12.0826
▁discontinue	-12.0853
Talk	-12.0853
Czar	-12.0866
Boy	-12.0936
Art	-12.0937
IRS	-12.1005
▁declar	-12.1063
found	-12.1161
worn	-12.1163
control	-12.1163
Since	-12.1163
sacrifice	-12.1163
Besides	-12.1163
▁polish	-12.1177
▁disperse	-12.1182
▁dirt	-12.1205
▁Refu	-12.1206
▁harp	-12.1218
EMARK	-12.1218
NCLUD	-12.1218
Unfortunately	-12.1218
▁Admiral	-12.1218
▁Buchanan	-12.1218
▁Council	-12.1218
▁DISC	-12.1218
▁Derbyshire	-12.1218
▁Language	-12.1218
▁Mercutio	-12.1218
▁Mozháysk	-12.1218
▁Mávra	-12.1218
▁Oxford	-12.1218
▁Piazza	-12.1218
▁Platón	-12.1218
▁Rhetor	-12.1218
▁Spaniard	-12.1218
▁Teucer	-12.1218
▁Tydeus	-12.1218
▁approbation	-12.1218
▁audacity	-12.1218
▁bodice	-12.1218
▁commissary	-12.1218
▁confront	-12.1218
▁contemporaries	-12.1218
▁defensive	-12.1218
▁displeasure	-12.1218
▁disregard	-12.1218
▁economy	-12.1218
▁grotesque	-12.1218
▁guidance	-12.1218
▁identification	-12.1218
▁immensity	-12.1218
▁impertinent	-12.1218
▁intoxication	-12.1218
▁kerchief	-12.1218
▁memorable	-12.1218
▁merciful	-12.1218
▁napkin	-12.1218
▁nickname	-12.1218
▁opposing	-12.1218
▁preoccupation	-12.1218
▁recital	-12.1218
▁repugnance	-12.1218
▁scuttle	-12.1218
▁slammed	-12.1218
▁souvenir	-12.1218
▁splendour	-12.1218
▁sturdy	-12.1218
▁superhuman	-12.1218
▁testimony	-12.1218
▁tremulous	-12.1218
▁tunnel	-12.1218
▁undecided	-12.1218
▁voluntary	-12.1218
▁yawned	-12.1218
▁Babylon	-12.1218
▁Dawn	-12.1218
▁PUR	-12.1218
▁calamity	-12.1218
▁dainty	-12.1218
▁destination	-12.1218
▁mingling	-12.1218
▁prowess	-12.1218
▁retiring	-12.1218
▁sausage	-12.1218
▁Either	-12.1218
▁adorable	-12.1218
▁bridal	-12.1218
▁glut	-12.1218
▁morose	-12.1218
▁nursing	-12.1218
▁originator	-12.1218
▁veneration	-12.1218
▁impelled	-12.1218
▁sallow	-12.1218
TUAL	-12.1218
▁Sailor	-12.1218
▁Sicily	-12.1218
▁aspiration	-12.1218
▁Eastern	-12.1218
▁untimely	-12.1218
Pierced	-12.1218
▁salad	-12.1218
▁depressed	-12.1218
▁overturned	-12.1218
▁pillage	-12.1218
▁urging	-12.1218
▁Jones	-12.1218
▁gait	-12.1218
▁soaked	-12.1219
▁402	-12.122
▁recede	-12.122
ETTE	-12.1222
Third	-12.1226
▁formula	-12.1237
▁trou	-12.1244
▁pell	-12.1249
validity	-12.1303
‘	-12.1325
Mind	-12.1515
General	-12.158
Louis	-12.158
Nicholas	-12.158
something	-12.158
storm	-12.1581
▁germ	-12.1582
▁embarrass	-12.1591
▁respond	-12.1594
▁convulsive	-12.1611
semble	-12.1632
▁corporat	-12.1635
▁Fontaine	-12.1635
Armilly	-12.1635
Empereur	-12.1635
GRAPH	-12.1635
ILITY	-12.1635
LIGENCE	-12.1635
NDEMN	-12.1635
STRICT	-12.1635
UCH	-12.1635
Vereshchágin	-12.1635
▁(80	-12.1635
▁ARGUMENT	-12.1635
▁Bohemia	-12.1635
▁Carfax	-12.1635
▁Field	-12.1635
▁Hellenic	-12.1635
▁Hundred	-12.1635
▁Hunsford	-12.1635
▁Japanese	-12.1635
▁Kuzmínichna	-12.1635
▁Popolo	-12.1635
▁Pylian	-12.1635
▁Terrible	-12.1635
▁Translat	-12.1635
▁Volunteers	-12.1635
▁alternative	-12.1635
▁anecdote	-12.1635
▁antagonist	-12.1635
▁apologize	-12.1635
▁applies	-12.1635
▁aristocracy	-12.1635
▁balcony	-12.1635
▁barracks	-12.1635
▁brigadier	-12.1635
▁choosing	-12.1635
▁coracle	-12.1635
▁dizzy	-12.1635
▁egotism	-12.1635
▁exaggeration	-12.1635
▁funereal	-12.1635
▁gratified	-12.1635
▁hereditary	-12.1635
▁impassive	-12.1635
▁imperturbable	-12.1635
▁improbable	-12.1635
▁imprudent	-12.1635
▁indecision	-12.1635
▁infringement	-12.1635
▁insensible	-12.1635
▁irresistibly	-12.1635
▁junction	-12.1635
▁kinsman	-12.1635
▁lemonade	-12.1635
▁mechanism	-12.1635
▁omnibus	-12.1635
▁poignant	-12.1635
▁portfolio	-12.1635
▁prophecy	-12.1635
▁provincial	-12.1635
▁pulpit	-12.1635
▁telephone	-12.1635
▁unforeseen	-12.1635
▁unintelligible	-12.1635
▁unreasonable	-12.1635
▁vacancy	-12.1635
▁volcano	-12.1635
▁Brighton	-12.1635
▁Hippo	-12.1635
▁artifice	-12.1635
▁conspire	-12.1635
▁decanter	-12.1635
▁entrails	-12.1635
▁narration	-12.1635
▁prodigal	-12.1635
▁OWN	-12.1635
▁deformity	-12.1635
▁garlic	-12.1635
▁termination	-12.1635
▁hyper	-12.1635
▁tucked	-12.1635
▁athlete	-12.1635
▁gallows	-12.1635
▁necklace	-12.1635
▁uncontroll	-12.1635
FUND	-12.1635
▁pallid	-12.1635
PLEAS	-12.1635
▁overpowered	-12.1635
▁hemmed	-12.1635
▁redeem	-12.1635
Literally	-12.1635
▁postpone	-12.1635
▁unerring	-12.1635
LAF	-12.1635
▁farthest	-12.1635
▁nightmare	-12.1635
▁dowry	-12.1635
▁quilt	-12.1635
eluded	-12.1635
▁inherent	-12.1635
▁location	-12.1635
▁Giles	-12.1635
▁brushwood	-12.1635
anthrop	-12.1635
▁wilful	-12.1635
▁yelled	-12.1635
▁Compare	-12.1635
▁gems	-12.1635
▁averse	-12.1636
▁Volu	-12.1636
Wife	-12.1637
▁balm	-12.1639
-62	-12.1644
Always	-12.1649
▁Hyp	-12.1659
secr	-12.1726
taste	-12.1852
▁dialect	-12.1861
IDENT	-12.2008
quarters	-12.2009
chief	-12.2014
Little	-12.2015
eBook	-12.2015
window	-12.2015
Great	-12.2015
Sónya	-12.2015
whale	-12.2015
corner	-12.2015
▁PROVIDE	-12.202
▁absorb	-12.2029
▁elevate	-12.2033
▁ki	-12.2054
▁legislat	-12.2055
orrupt	-12.2068
▁coincide	-12.2069
6-18	-12.2069
▁Prefect	-12.2069
ULYSSES	-12.2069
Undoubtedly	-12.2069
▁ACHILLES	-12.2069
▁Adventure	-12.2069
▁Contributions	-12.2069
▁Eternal	-12.2069
▁Eurymachus	-12.2069
▁Invalides	-12.2069
▁Leatherhead	-12.2069
▁Roylott	-12.2069
▁Ryazán	-12.2069
▁SERV	-12.2069
▁Thracian	-12.2069
▁Timaeus	-12.2069
▁Wolzogen	-12.2069
▁Xanthus	-12.2069
▁accumulate	-12.2069
▁austere	-12.2069
▁cabbage	-12.2069
▁cesspool	-12.2069
▁channel	-12.2069
▁chastise	-12.2069
▁diffused	-12.2069
▁elastic	-12.2069
▁enchantment	-12.2069
▁encouraging	-12.2069
▁expenditure	-12.2069
▁expensive	-12.2069
▁extensive	-12.2069
▁forcibly	-12.2069
▁generosity	-12.2069
▁humiliation	-12.2069
▁humility	-12.2069
▁hurricane	-12.2069
▁inaccessible	-12.2069
▁incoherent	-12.2069
▁inexhaustible	-12.2069
▁infallibly	-12.2069
▁paralyze	-12.2069
▁plunging	-12.2069
▁shrewd	-12.2069
▁slanting	-12.2069
▁striding	-12.2069
▁stupor	-12.2069
▁submissive	-12.2069
▁superficial	-12.2069
▁sympathize	-12.2069
▁twelfth	-12.2069
▁unavailing	-12.2069
▁unearthly	-12.2069
▁unsuccessful	-12.2069
▁veteran	-12.2069
▁Divine	-12.2069
▁Dmítri	-12.2069
▁Myrmidon	-12.2069
▁Safie	-12.2069
▁Venice	-12.2069
▁clamber	-12.2069
▁liberated	-12.2069
▁oyster	-12.2069
▁vodka	-12.2069
▁Fox	-12.2069
▁Varna	-12.2069
▁effectually	-12.2069
▁mamma	-12.2069
▁Israel	-12.2069
▁overcame	-12.2069
▁pervade	-12.2069
▁Smoke	-12.2069
▁befallen	-12.2069
▁mythology	-12.2069
▁slash	-12.2069
▁guinea	-12.2069
▁(4)	-12.2069
▁Thunderer	-12.2069
▁bubble	-12.2069
▁coffer	-12.2069
▁defile	-12.2069
▁massacre	-12.2069
▁rebuke	-12.2069
▁nightingale	-12.2069
▁resort	-12.2069
▁essay	-12.207
▁verbal	-12.207
▁Mentor	-12.207
▁Olm	-12.207
▁aloof	-12.207
▁notifies	-12.207
HOSE	-12.207
▁forbade	-12.207
▁undone	-12.207
▁isolation	-12.207
▁subsist	-12.207
▁exhale	-12.207
▁normal	-12.2073
▁syn	-12.2073
▁dilate	-12.208
Drink	-12.2081
▁denote	-12.2124
Break	-12.2136
ENTIAL	-12.2182
WHI	-12.2311
dditional	-12.2367
▁slack	-12.2419
Information	-12.2469
license	-12.2469
trademark	-12.2469
Maximilian	-12.2469
Though	-12.2469
copyright	-12.2469
blue	-12.2469
barrel	-12.2469
little	-12.247
consider	-12.247
could	-12.247
▁shove	-12.2506
ompliance	-12.2522
▁Green	-12.2523
▁philosophi	-12.2523
nternal	-12.2524
▁Lieutenant	-12.2524
Citizen	-12.2524
Coleridge	-12.2524
misunderstanding	-12.2524
prehensi	-12.2524
▁Assuredly	-12.2524
▁Azelma	-12.2524
▁Drissa	-12.2524
▁Dummling	-12.2524
▁Eliza	-12.2524
▁Florence	-12.2524
▁Guelemer	-12.2524
▁Ivánovna	-12.2524
▁Krásnoe	-12.2524
▁Michaud	-12.2524
▁Myrtle	-12.2524
▁Number	-12.2524
▁Ogilvy	-12.2524
▁Piccadilly	-12.2524
▁Raévski	-12.2524
▁Robespierre	-12.2524
▁Scylla	-12.2524
▁Stretch	-12.2524
▁Telamon	-12.2524
▁boudoir	-12.2524
▁citadel	-12.2524
▁clavichord	-12.2524
▁commerce	-12.2524
▁condescension	-12.2524
▁conspiracy	-12.2524
▁coquettish	-12.2524
▁cripple	-12.2524
▁dilapidated	-12.2524
▁embracing	-12.2524
▁exchanging	-12.2524
▁fertile	-12.2524
▁hypotheses	-12.2524
▁intensified	-12.2524
▁irreproachable	-12.2524
▁kitten	-12.2524
▁perseverance	-12.2524
▁possibilities	-12.2524
▁rallied	-12.2524
▁rebellion	-12.2524
▁reminiscence	-12.2524
▁sagacious	-12.2524
▁salutation	-12.2524
▁sequence	-12.2524
▁shako	-12.2524
▁shrine	-12.2524
▁tribute	-12.2524
▁upheld	-12.2524
▁vegetation	-12.2524
▁vivacity	-12.2524
▁Bristol	-12.2524
▁impotent	-12.2524
▁terminated	-12.2524
▁transaction	-12.2524
▁wicket	-12.2524
▁conventional	-12.2524
▁deluge	-12.2524
▁tentacle	-12.2524
▁firmament	-12.2524
▁repaid	-12.2524
▁sermon	-12.2524
▁endurance	-12.2524
▁placid	-12.2524
▁turf	-12.2524
▁windlass	-12.2524
▁cutlass	-12.2524
▁investigate	-12.2524
▁shipowner	-12.2524
▁scrambl	-12.2524
▁terrace	-12.2524
▁pagan	-12.2524
▁restoration	-12.2524
▁undressed	-12.2524
▁Hosmer	-12.2524
▁presentiment	-12.2524
▁copse	-12.2524
▁desiring	-12.2524
▁starving	-12.2524
▁overlooked	-12.2524
▁infinity	-12.2524
▁Power	-12.2524
▁insane	-12.2524
▁fawn	-12.2524
▁chalk	-12.2525
Bravo	-12.2525
▁budge	-12.2525
▁Loud	-12.2525
Woman	-12.2526
Dark	-12.253
Fool	-12.2531
▁Stern	-12.2537
▁abstain	-12.254
Honoré	-12.2549
Better	-12.2549
▁Direct	-12.2671
cross	-12.2789
▁recite	-12.2796
fingered	-12.2801
confident	-12.2945
Something	-12.2945
school	-12.2945
except	-12.2946
bridge	-12.2946
heap	-12.2952
▁smash	-12.2959
▁festiv	-12.3
▁juniper	-12.3
Pardieu	-12.3
▁Beaucaire	-12.3
▁Brevet	-12.3
▁Brussels	-12.3
▁Chicago	-12.3
▁Deiphobus	-12.3
▁Government	-12.3
▁Hellenes	-12.3
▁Henderson	-12.3
▁Hendríkhovna	-12.3
▁Lafayette	-12.3
▁Mantua	-12.3
▁Milorádovich	-12.3
▁Observ	-12.3
▁Radney	-12.3
▁Redoubt	-12.3
▁Redruth	-12.3
▁SAMPSON	-12.3
▁Slovak	-12.3
▁appeased	-12.3
▁audacious	-12.3
▁baffled	-12.3
▁billiard	-12.3
▁champion	-12.3
▁chemical	-12.3
▁connexion	-12.3
▁dauntless	-12.3
▁deceased	-12.3
▁deceiving	-12.3
▁defiance	-12.3
▁degenerate	-12.3
▁diameter	-12.3
▁disastrous	-12.3
▁embattled	-12.3
▁embers	-12.3
▁epaulets	-12.3
▁excursion	-12.3
▁exhort	-12.3
▁fascination	-12.3
▁fervent	-12.3
▁fumbling	-12.3
▁fundamental	-12.3
▁geometrical	-12.3
▁glistened	-12.3
▁glistening	-12.3
▁gypsies	-12.3
▁imploring	-12.3
▁ingenuous	-12.3
▁magnanimous	-12.3
▁masculine	-12.3
▁muscular	-12.3
▁nettle	-12.3
▁politician	-12.3
▁preliminary	-12.3
▁premises	-12.3
▁preserving	-12.3
▁removal	-12.3
▁ruthless	-12.3
▁samovar	-12.3
▁scrutiny	-12.3
▁separating	-12.3
▁shrubbery	-12.3
▁skirmish	-12.3
▁threadbare	-12.3
▁ticket	-12.3
▁tribunal	-12.3
▁unconcern	-12.3
▁unhealthy	-12.3
▁unlimited	-12.3
▁unmoved	-12.3
▁varieties	-12.3
▁Fauvent	-12.3
▁Niemen	-12.3
▁Sultan	-12.3
▁circum	-12.3
▁draft	-12.3
▁follies	-12.3
▁melody	-12.3
▁prairie	-12.3
▁swoon	-12.3
▁ripple	-12.3
▁flask	-12.3
▁momentarily	-12.3
▁XXVII	-12.3
▁profane	-12.3
▁Chief	-12.3
▁cleft	-12.3
▁jib	-12.3
ographical	-12.3
▁hatchet	-12.3
▁dedicate	-12.3
▁unlocked	-12.3
▁underwent	-12.3
▁liking	-12.3
▁twinkle	-12.3
▁pauper	-12.3
----”	-12.3
▁aptitude	-12.3
▁muslin	-12.3
▁cadet	-12.3
▁gilt	-12.3
machus	-12.3001
▁nasty	-12.3001
▁Tartar	-12.3001
Hullo	-12.3001
▁Bank	-12.3026
“	-12.3153
AGE	-12.3187
▁gird	-12.3424
Doctor	-12.3445
wagon	-12.3445
Telemachus	-12.3446
Edmond	-12.3446
Most	-12.3446
Pierre	-12.3446
people	-12.3446
crow	-12.3461
uaker	-12.3471
▁cuirass	-12.35
▁obstruct	-12.35
Possibly	-12.35
enunciation	-12.35
▁Amélie	-12.35
▁Balagá	-12.35
▁Benbow	-12.35
▁Lacedaemon	-12.35
▁Mestienne	-12.35
▁PRINCE	-12.35
▁Shakespeare	-12.35
▁Tepelini	-12.35
▁Venetian	-12.35
▁Vernon	-12.35
▁Voyage	-12.35
▁Vyázma	-12.35
▁Windibank	-12.35
▁agility	-12.35
▁archangel	-12.35
▁assumption	-12.35
▁bewilderment	-12.35
▁concluding	-12.35
▁convenience	-12.35
▁destructive	-12.35
▁dishonest	-12.35
▁drummer	-12.35
▁engaging	-12.35
▁fanciful	-12.35
▁flavor	-12.35
▁flèches	-12.35
▁foreboding	-12.35
▁imperceptibly	-12.35
▁inconceivable	-12.35
▁indescribably	-12.35
▁indolent	-12.35
▁industrious	-12.35
▁liquor	-12.35
▁maneuvers	-12.35
▁misshapen	-12.35
▁multiplied	-12.35
▁municipal	-12.35
▁negotiation	-12.35
▁pedestrian	-12.35
▁pepper	-12.35
▁platform	-12.35
▁predestined	-12.35
▁pretension	-12.35
▁respiration	-12.35
▁sarcastic	-12.35
▁saviour	-12.35
▁scrupulous	-12.35
▁scullery	-12.35
▁securing	-12.35
▁squat	-12.35
▁strategic	-12.35
▁stumbling	-12.35
▁unavoidable	-12.35
▁unbuttoned	-12.35
▁unobserved	-12.35
▁utility	-12.35
▁compartment	-12.35
▁desolation	-12.35
▁hawser	-12.35
▁palpable	-12.35
▁Credit	-12.35
▁adroit	-12.35
▁shoal	-12.35
Cloud	-12.35
▁carnage	-12.35
▁choir	-12.35
▁encamped	-12.35
▁graze	-12.35
▁pitiable	-12.35
▁sloping	-12.35
▁verdure	-12.35
▁capstan	-12.35
▁injuries	-12.35
▁salary	-12.35
▁humbly	-12.35
▁temperament	-12.35
▁crossroads	-12.35
▁Tuscan	-12.35
▁landowner	-12.35
▁groping	-12.35
▁noisily	-12.35
▁undressing	-12.35
▁busied	-12.35
▁enmity	-12.35
JEAN	-12.35
▁cream	-12.35
SOME	-12.35
▁implies	-12.35
▁Satan	-12.35
▁durst	-12.35
Anything	-12.3505
Proceed	-12.3508
▁poise	-12.3576
Thunder	-12.3626
Pull	-12.3686
Step	-12.3937
convict	-12.3972
Before	-12.3972
built	-12.3972
number	-12.3972
especially	-12.3972
girl	-12.3972
Both	-12.3974
▁stammer	-12.3986
▁oscillat	-12.4026
▁perpetrat	-12.4026
▁reconstruct	-12.4026
Cottleston	-12.4026
GAVROCHE	-12.4026
POOH	-12.4026
▁Academy	-12.4026
▁BATTLE	-12.4026
▁Bougon	-12.4026
▁Caroline	-12.4026
▁College	-12.4026
▁Company	-12.4026
▁Constantinople	-12.4026
▁Dahlia	-12.4026
▁Ferapóntov	-12.4026
▁Genappe	-12.4026
▁HOUSE	-12.4026
▁Nubian	-12.4026
▁Peisistratus	-12.4026
▁Polonceau	-12.4026
▁Rapunzel	-12.4026
▁Simois	-12.4026
▁Vaugirard	-12.4026
▁Vicomte	-12.4026
▁adjacent	-12.4026
▁album	-12.4026
▁arguing	-12.4026
▁baptism	-12.4026
▁beckoned	-12.4026
▁brawny	-12.4026
▁champagne	-12.4026
▁circumference	-12.4026
▁concentration	-12.4026
▁confiding	-12.4026
▁contemplating	-12.4026
▁contrivance	-12.4026
▁convincing	-12.4026
▁cradle	-12.4026
▁delirious	-12.4026
▁deserving	-12.4026
▁despoil	-12.4026
▁destitute	-12.4026
▁dimensions	-12.4026
▁elevating	-12.4026
▁engraved	-12.4026
▁enumerate	-12.4026
▁estimation	-12.4026
▁fiacre	-12.4026
▁greedy	-12.4026
▁handwriting	-12.4026
▁hypothesis	-12.4026
▁imprudence	-12.4026
▁infidel	-12.4026
▁intermittent	-12.4026
▁invariable	-12.4026
▁irrational	-12.4026
▁irritable	-12.4026
▁magnanimity	-12.4026
▁masonry	-12.4026
▁nimble	-12.4026
▁palisade	-12.4026
▁parapet	-12.4026
▁proximity	-12.4026
▁relinquish	-12.4026
▁retract	-12.4026
▁societies	-12.4026
▁throbbing	-12.4026
▁troubling	-12.4026
▁unfathomable	-12.4026
▁unnoticed	-12.4026
▁vibration	-12.4026
▁visibly	-12.4026
▁voluntarily	-12.4026
Approach	-12.4026
COSETTE	-12.4026
▁grammar	-12.4026
▁multiply	-12.4026
▁mutiny	-12.4026
▁program	-12.4026
▁sledge	-12.4026
▁Hollow	-12.4026
▁agonizing	-12.4026
▁clime	-12.4026
▁wrung	-12.4026
separable	-12.4026
▁enigmatical	-12.4026
▁mutilat	-12.4026
▁Palais	-12.4026
▁editor	-12.4026
▁gentry	-12.4026
▁spake	-12.4026
▁guiding	-12.4026
▁Strong	-12.4026
▁Human	-12.4026
▁eastern	-12.4026
▁Earth	-12.4026
▁spiral	-12.4027
▁pork	-12.4027
▁counsellor	-12.4027
▁vertebr	-12.4027
▁imprint	-12.4027
▁vertical	-12.4027
Courage	-12.4028
▁bawl	-12.4029
Flora	-12.4029
▁devoi	-12.4032
▁preface	-12.4087
Retire	-12.4092
gotten	-12.4282
educated	-12.4527
Think	-12.4527
Neither	-12.4527
carriage	-12.4527
Albert	-12.4527
black	-12.4528
▁identifi	-12.4582
Fifteen	-12.4582
uesnel	-12.4582
éphine	-12.4582
▁Avenue	-12.4582
▁Bedford	-12.4582
▁Bernardines	-12.4582
▁Bistritz	-12.4582
▁Chertsey	-12.4582
▁Claquesous	-12.4582
▁Confused	-12.4582
▁GOOD	-12.4582
▁Galatz	-12.4582
▁Gospel	-12.4582
▁Gérard	-12.4582
▁HECTOR	-12.4582
▁Hatherley	-12.4582
▁Ishmael	-12.4582
▁Kozlóvski	-12.4582
▁McKee	-12.4582
▁Natural	-12.4582
▁Nausicaa	-12.4582
▁Progress	-12.4582
▁Sacrament	-12.4582
▁Scotch	-12.4582
▁Sebastian	-12.4582
▁TYBALT	-12.4582
▁Treasure	-12.4582
▁Vorónezh	-12.4582
▁abhorrence	-12.4582
▁acknowledging	-12.4582
▁acquisition	-12.4582
▁administration	-12.4582
▁afloat	-12.4582
▁alphabet	-12.4582
▁apparatus	-12.4582
▁bespoke	-12.4582
▁calculating	-12.4582
▁cauldron	-12.4582
▁certificate	-12.4582
▁climate	-12.4582
▁communion	-12.4582
▁comprehensive	-12.4582
▁conservatory	-12.4582
▁consummate	-12.4582
▁continent	-12.4582
▁conversion	-12.4582
▁crumpled	-12.4582
▁disinherit	-12.4582
▁embodied	-12.4582
▁entrenchment	-12.4582
▁exposing	-12.4582
▁exposure	-12.4582
▁extravagant	-12.4582
▁extremities	-12.4582
▁fabulous	-12.4582
▁forefinger	-12.4582
▁fusillade	-12.4582
▁grumbling	-12.4582
▁huddled	-12.4582
▁impulsive	-12.4582
▁inflexible	-12.4582
▁instantaneous	-12.4582
▁invaluable	-12.4582
▁marauder	-12.4582
▁mushroom	-12.4582
▁obstinacy	-12.4582
▁ominous	-12.4582
▁paralytic	-12.4582
▁paraphrase	-12.4582
▁plentiful	-12.4582
▁potatoes	-12.4582
▁premature	-12.4582
▁presumption	-12.4582
▁prohibited	-12.4582
▁promontory	-12.4582
▁recommence	-12.4582
▁resolving	-12.4582
▁sepulchral	-12.4582
▁sluggish	-12.4582
▁strategy	-12.4582
▁strenuous	-12.4582
▁submerged	-12.4582
▁swoop	-12.4582
▁transfigured	-12.4582
▁traversing	-12.4582
▁trigger	-12.4582
▁troyka	-12.4582
▁twig	-12.4582
▁unspeakable	-12.4582
▁vouchsafe	-12.4582
▁whitewashed	-12.4582
▁Antenor	-12.4582
▁Coffin	-12.4582
▁Marengo	-12.4582
▁Ramballe	-12.4582
▁World	-12.4582
▁bomb	-12.4582
▁dangling	-12.4582
▁dejection	-12.4582
▁espied	-12.4582
▁fencing	-12.4582
▁imminent	-12.4582
▁promenade	-12.4582
▁staid	-12.4582
▁taciturn	-12.4582
▁Kiev	-12.4582
▁Leclere	-12.4582
▁Museum	-12.4582
▁burglar	-12.4582
▁decrease	-12.4582
▁filial	-12.4582
▁flitted	-12.4582
▁homage	-12.4582
▁probity	-12.4582
▁upbraid	-12.4582
▁devout	-12.4582
▁enroll	-12.4582
▁implant	-12.4582
▁dominion	-12.4582
▁fuel	-12.4582
▁Chryse	-12.4582
▁fanatic	-12.4582
▁chaff	-12.4582
▁chuckle	-12.4582
▁Bourg	-12.4588
flake	-12.464
compelling	-12.499
▁depriv	-12.5035
HOU	-12.5091
Monseigneur	-12.5115
Jonathan	-12.5116
Mercédès	-12.5116
feeling	-12.5116
pocket	-12.5116
▁tyrann	-12.5156
uspicious	-12.5169
▁WHO	-12.517
▁circumspect	-12.517
▁transfix	-12.517
Excellent	-12.517
pudding	-12.517
▁Amsterdam	-12.517
▁Asclepius	-12.517
▁Autolycus	-12.517
▁Bigrenaille	-12.517
▁Brutus	-12.517
▁Cyclopes	-12.517
▁Dimmler	-12.517
▁Eurynome	-12.517
▁Gazette	-12.517
▁Glinda	-12.517
▁HARKER	-12.517
▁Holmwood	-12.517
▁Hussey	-12.517
▁Instantly	-12.517
▁Konovnítsyn	-12.517
▁Odyssean	-12.517
▁Plutarque	-12.517
▁Pratzen	-12.517
▁Teiresias	-12.517
▁Theodore	-12.517
▁Tilsit	-12.517
▁Winchester	-12.517
▁Yojo	-12.517
▁advocate	-12.517
▁ambuscade	-12.517
▁arcade	-12.517
▁articulate	-12.517
▁authoritative	-12.517
▁balancing	-12.517
▁bracket	-12.517
▁brilliancy	-12.517
▁bubbling	-12.517
▁charcoal	-12.517
▁chimerical	-12.517
▁collision	-12.517
▁congregation	-12.517
▁conjunction	-12.517
▁consecrated	-12.517
▁coxswain	-12.517
▁decrepit	-12.517
▁defense	-12.517
▁emitted	-12.517
▁emphasis	-12.517
▁encompass	-12.517
▁enraptured	-12.517
▁episcopa	-12.517
▁explicit	-12.517
▁explode	-12.517
▁fabric	-12.517
▁ferocity	-12.517
▁fidelity	-12.517
▁giddy	-12.517
▁hindrance	-12.517
▁impassable	-12.517
▁impertinence	-12.517
